</s>	0
<unk>	0
<cmd>	0
>>eng<<	0
>>zho<<	0
▁t	-0
▁a	-1
he	-2
in	-3
re	-4
on	-5
▁the	-6
▁s	-7
at	-8
er	-9
▁o	-10
▁w	-11
nd	-12
▁c	-13
en	-14
it	-15
es	-16
ou	-17
ing	-18
▁p	-19
is	-20
or	-21
▁b	-22
▁f	-23
al	-24
ed	-25
▁of	-26
▁to	-27
▁m	-28
an	-29
▁in	-30
▁and	-31
ion	-32
▁d	-33
ar	-34
▁th	-35
ic	-36
▁h	-37
le	-38
om	-39
ent	-40
as	-41
▁e	-42
▁re	-43
ve	-44
▁l	-45
▁n	-46
ct	-47
ro	-48
il	-49
▁g	-50
st	-51
▁be	-52
ation	-53
▁T	-54
▁y	-55
ly	-56
se	-57
ut	-58
▁that	-59
▁you	-60
▁A	-61
im	-62
ow	-63
ce	-64
▁u	-65
et	-66
ot	-67
▁I	-68
id	-69
▁is	-70
ur	-71
▁for	-72
▁on	-73
ig	-74
ver	-75
ra	-76
ol	-77
▁st	-78
▁it	-79
ay	-80
ch	-81
▁he	-82
▁ha	-83
ir	-84
▁con	-85
▁we	-86
▁The	-87
▁S	-88
ith	-89
我们	-90
ment	-91
ul	-92
▁wh	-93
▁al	-94
▁pro	-95
▁with	-96
ld	-97
▁as	-98
if	-99
▁de	-100
ter	-101
▁an	-102
ies	-103
her	-104
op	-105
ke	-106
ess	-107
▁com	-108
ate	-109
▁ex	-110
▁or	-111
▁are	-112
ad	-113
am	-114
▁C	-115
▁su	-116
ers	-117
▁W	-118
ts	-119
ity	-120
pp	-121
ect	-122
res	-123
ge	-124
od	-125
ive	-126
igh	-127
ill	-128
一个	-129
▁was	-130
他们	-131
ab	-132
ore	-133
qu	-134
iv	-135
▁ne	-136
▁se	-137
ain	-138
▁B	-139
▁v	-140
el	-141
▁r	-142
em	-143
ort	-144
ould	-145
▁le	-146
ist	-147
ac	-148
est	-149
▁at	-150
us	-151
nt	-152
▁fr	-153
▁this	-154
ial	-155
▁sh	-156
▁ch	-157
▁not	-158
▁H	-159
▁have	-160
um	-161
art	-162
▁i	-163
out	-164
ant	-165
▁can	-166
ust	-167
▁ab	-168
oc	-169
▁by	-170
▁M	-171
os	-172
and	-173
▁k	-174
▁And	-175
rou	-176
un	-177
ure	-178
ions	-179
gh	-180
▁en	-181
▁wor	-182
ome	-183
▁me	-184
ie	-185
ations	-186
ight	-187
▁your	-188
▁im	-189
pe	-190
▁from	-191
▁j	-192
th	-193
▁int	-194
▁P	-195
▁they	-196
ud	-197
ib	-198
这些	-199
▁go	-200
▁do	-201
▁all	-202
▁their	-203
red	-204
ther	-205
ff	-206
可以	-207
all	-208
our	-209
ally	-210
ard	-211
▁Th	-212
iz	-213
▁whe	-214
▁O	-215
pl	-216
▁ad	-217
▁N	-218
▁res	-219
▁pl	-220
ous	-221
▁我	-222
▁F	-223
可能	-224
▁so	-225
per	-226
king	-227
▁cont	-228
▁E	-229
▁will	-230
ide	-231
very	-232
▁about	-233
ike	-234
▁us	-235
▁D	-236
▁In	-237
ip	-238
▁U	-239
▁R	-240
ance	-241
ll	-242
▁imp	-243
▁ma	-244
▁dis	-245
ical	-246
▁tr	-247
ich	-248
vel	-249
ong	-250
ind	-251
▁pe	-252
▁kn	-253
ine	-254
▁这	-255
▁comp	-256
▁在	-257
og	-258
reat	-259
cc	-260
▁out	-261
ost	-262
▁G	-263
act	-264
ere	-265
ans	-266
▁like	-267
ag	-268
没有	-269
able	-270
pt	-271
ast	-272
问题	-273
▁un	-274
20	-275
▁man	-276
▁had	-277
▁up	-278
▁inc	-279
ose	-280
age	-281
▁has	-282
nder	-283
▁there	-284
orm	-285
▁other	-286
▁It	-287
▁L	-288
▁them	-289
are	-290
ence	-291
▁were	-292
▁know	-293
ice	-294
▁more	-295
▁tim	-296
▁part	-297
▁what	-298
ated	-299
▁te	-300
one	-301
▁one	-302
▁app	-303
▁1	-304
▁but	-305
so	-306
ks	-307
ult	-308
通过	-309
▁his	-310
▁our	-311
ount	-312
什么	-313
▁Y	-314
ep	-315
ary	-316
▁pr	-317
▁which	-318
▁cl	-319
▁comm	-320
du	-321
如果	-322
ces	-323
ress	-324
▁would	-325
▁also	-326
工作	-327
ople	-328
ace	-329
▁act	-330
ities	-331
▁some	-332
▁ag	-333
ear	-334
ber	-335
ue	-336
au	-337
ap	-338
▁these	-339
▁ev	-340
▁into	-341
ru	-342
▁ar	-343
ational	-344
▁qu	-345
oo	-346
▁been	-347
ings	-348
ry	-349
ign	-350
▁people	-351
▁its	-352
▁who	-353
▁my	-354
▁how	-355
国家	-356
▁under	-357
▁sp	-358
rough	-359
所以	-360
▁time	-361
ack	-362
知道	-363
▁你	-364
ild	-365
▁bec	-366
▁ta	-367
ments	-368
需要	-369
form	-370
itt	-371
tern	-372
ach	-373
ia	-374
▁sa	-375
▁But	-376
▁when	-377
这个	-378
因为	-379
▁her	-380
ition	-381
▁tra	-382
▁pre	-383
▁fe	-384
▁just	-385
提供	-386
▁rec	-387
自己	-388
▁但	-389
▁if	-390
velop	-391
ors	-392
其他	-393
ell	-394
▁ro	-395
ays	-396
ough	-397
▁St	-398
它们	-399
fere	-400
▁per	-401
ious	-402
ame	-403
▁spe	-404
ire	-405
▁This	-406
进行	-407
所有	-408
的人	-409
ater	-410
重要	-411
ile	-412
▁em	-413
▁cons	-414
▁Wh	-415
ates	-416
▁reg	-417
一些	-418
ons	-419
▁any	-420
▁sc	-421
▁我们	-422
你的	-423
▁So	-424
▁over	-425
ful	-426
▁ind	-427
▁need	-428
lic	-429
ents	-430
▁am	-431
ang	-432
ass	-433
▁bet	-434
ating	-435
▁rep	-436
使用	-437
ory	-438
ens	-439
▁work	-440
▁dif	-441
ning	-442
ause	-443
▁develop	-444
ite	-445
▁new	-446
ree	-447
av	-448
ase	-449
▁eff	-450
▁off	-451
▁acc	-452
cial	-453
以及	-454
ink	-455
▁no	-456
ish	-457
▁through	-458
ual	-459
▁20	-460
ond	-461
ound	-462
▁他	-463
现在	-464
ific	-465
lect	-466
ove	-467
▁tw	-468
▁As	-469
▁could	-470
ord	-471
erv	-472
▁count	-473
ood	-474
▁than	-475
▁rel	-476
▁may	-477
▁prov	-478
▁she	-479
▁sy	-480
▁He	-481
▁should	-482
认为	-483
cess	-484
pect	-485
▁We	-486
sel	-487
▁get	-488
▁hel	-489
▁every	-490
ub	-491
omm	-492
ren	-493
▁rem	-494
ited	-495
▁year	-496
开始	-497
pport	-498
▁help	-499
如何	-500
▁J	-501
发展	-502
▁You	-503
▁pol	-504
▁co	-505
ures	-506
ms	-507
▁col	-508
任何	-509
▁inv	-510
▁such	-511
研究	-512
ied	-513
low	-514
round	-515
方面	-516
▁ra	-517
wn	-518
ian	-519
ract	-520
te	-521
▁pers	-522
we	-523
ook	-524
fore	-525
ail	-526
情况	-527
影响	-528
非常	-529
时间	-530
ric	-531
▁see	-532
ility	-533
已经	-534
iss	-535
不同	-536
ject	-537
一种	-538
▁Un	-539
eth	-540
▁dec	-541
ative	-542
世界	-543
▁him	-544
▁those	-545
▁hum	-546
▁po	-547
▁des	-548
▁disc	-549
hen	-550
▁所以	-551
中的	-552
社会	-553
hed	-554
关于	-555
▁pos	-556
▁ass	-557
▁differe	-558
uring	-559
不是	-560
▁very	-561
lud	-562
▁ob	-563
▁where	-564
ak	-565
olog	-566
get	-567
必须	-568
ible	-569
ade	-570
▁world	-571
les	-572
这种	-573
ced	-574
oy	-575
▁add	-576
▁think	-577
stem	-578
这一	-579
ne	-580
uc	-581
ular	-582
▁They	-583
ob	-584
ction	-585
vers	-586
▁way	-587
gan	-588
▁但是	-589
▁stud	-590
irst	-591
▁str	-592
▁commun	-593
own	-594
stand	-595
▁then	-596
tain	-597
▁two	-598
▁lear	-599
ise	-600
▁sec	-601
ec	-602
vern	-603
委员	-604
▁make	-605
政府	-606
生活	-607
▁many	-608
row	-609
ife	-610
ives	-611
▁Ch	-612
▁use	-613
oth	-614
xt	-615
委员会	-616
rit	-617
▁only	-618
ram	-619
fter	-620
▁did	-621
▁inst	-622
▁expl	-623
ov	-624
ark	-625
uch	-626
国际	-627
帮助	-628
他们的	-629
▁conc	-630
▁ac	-631
包括	-632
▁import	-633
alth	-634
这样	-635
▁soc	-636
ange	-637
▁exper	-638
▁now	-639
als	-640
ward	-641
▁system	-642
▁sub	-643
rib	-644
个人	-645
因此	-646
▁because	-647
▁back	-648
组织	-649
nds	-650
▁again	-651
安全	-652
ient	-653
这是	-654
▁even	-655
▁right	-656
▁bl	-657
ph	-658
aw	-659
▁well	-660
ices	-661
▁want	-662
了解	-663
▁includ	-664
部分	-665
▁pres	-666
ues	-667
ener	-668
他的	-669
▁ke	-670
ights	-671
ween	-672
的是	-673
int	-674
▁inform	-675
▁bu	-676
▁most	-677
ft	-678
▁partic	-679
然后	-680
▁当	-681
▁如果	-682
ution	-683
许多	-684
▁sm	-685
▁human	-686
ness	-687
old	-688
▁intern	-689
ident	-690
▁don	-691
▁first	-692
▁trans	-693
ily	-694
发现	-695
▁prog	-696
chn	-697
▁between	-698
方式	-699
ty	-700
▁different	-701
▁requ	-702
ble	-703
系统	-704
ics	-705
▁exp	-706
ember	-707
之间	-708
▁som	-709
▁child	-710
发生	-711
vent	-712
▁att	-713
我们的	-714
▁understand	-715
ever	-716
活动	-717
ys	-718
▁made	-719
oun	-720
▁inter	-721
ple	-722
ict	-723
▁ph	-724
▁good	-725
我的	-726
作为	-727
大的	-728
▁Comm	-729
会议	-730
hip	-731
ries	-732
▁going	-733
▁That	-734
▁How	-735
iet	-736
▁gu	-737
▁bas	-738
▁200	-739
▁take	-740
▁contin	-741
▁If	-742
看到	-743
▁too	-744
▁br	-745
人们	-746
iew	-747
技术	-748
self	-749
▁being	-750
ience	-751
other	-752
ick	-753
▁sur	-754
▁much	-755
信息	-756
ually	-757
▁ins	-758
▁techn	-759
▁fl	-760
▁life	-761
ower	-762
事情	-763
ee	-764
urn	-765
ural	-766
▁K	-767
▁produ	-768
就是	-769
报告	-770
美国	-771
▁ent	-772
▁fin	-773
▁health	-774
ath	-775
cy	-776
▁他们	-777
▁support	-778
人的	-779
▁years	-780
能够	-781
确保	-782
▁before	-783
omen	-784
▁process	-785
联合	-786
▁own	-787
▁great	-788
的一	-789
con	-790
▁said	-791
▁num	-792
ting	-793
▁down	-794
继续	-795
▁det	-796
▁United	-797
orts	-798
▁effect	-799
arm	-800
ublic	-801
方法	-802
▁19	-803
▁plan	-804
正在	-805
▁call	-806
成为	-807
▁set	-808
▁here	-809
its	-810
▁each	-811
支持	-812
▁person	-813
经济	-814
▁There	-815
应该	-816
▁resp	-817
led	-818
roup	-819
hes	-820
地方	-821
▁might	-822
ines	-823
保护	-824
时候	-825
▁iss	-826
努力	-827
▁sign	-828
▁say	-829
▁let	-830
ving	-831
ized	-832
ri	-833
学习	-834
▁ter	-835
理解	-836
好的	-837
ave	-838
▁form	-839
▁while	-840
管理	-841
ew	-842
▁fam	-843
▁find	-844
环境	-845
▁car	-846
▁development	-847
▁though	-848
ism	-849
▁important	-850
vernment	-851
▁really	-852
▁val	-853
一起	-854
到了	-855
▁after	-856
▁For	-857
▁aw	-858
ody	-859
ential	-860
und	-861
▁gl	-862
▁information	-863
▁international	-864
ool	-865
▁serv	-866
▁things	-867
ize	-868
自己的	-869
▁must	-870
▁day	-871
▁end	-872
end	-873
▁organ	-874
ern	-875
▁ref	-876
▁By	-877
▁sim	-878
▁cur	-879
ional	-880
▁ed	-881
▁used	-882
▁does	-883
或者	-884
▁comple	-885
▁pract	-886
▁happ	-887
▁long	-888
机构	-889
是一个	-890
nce	-891
▁var	-892
▁feel	-893
▁inf	-894
▁law	-895
▁gra	-896
▁look	-897
数据	-898
▁start	-899
▁conf	-900
▁lead	-901
▁appro	-902
▁2	-903
▁prot	-904
▁quest	-905
▁read	-906
可能会	-907
conom	-908
▁exam	-909
希望	-910
就像	-911
东西	-912
▁countries	-913
起来	-914
健康	-915
特别	-916
人员	-917
解决	-918
同时	-919
▁med	-920
▁around	-921
▁mon	-922
一样	-923
ved	-924
▁tal	-925
erg	-926
行为	-927
代表	-928
▁bel	-929
▁gener	-930
▁creat	-931
ization	-932
孩子	-933
ather	-934
ves	-935
▁water	-936
行动	-937
▁mod	-938
▁incre	-939
air	-940
▁both	-941
▁aut	-942
ah	-943
服务	-944
▁real	-945
ten	-946
让我们	-947
▁cour	-948
项目	-949
▁fact	-950
计划	-951
ittle	-952
▁loc	-953
▁during	-954
▁care	-955
合作	-956
保持	-957
ven	-958
arch	-959
▁sk	-960
决定	-961
过程	-962
选择	-963
▁ca	-964
ying	-965
ething	-966
不会	-967
▁sch	-968
▁mat	-969
▁kind	-970
ection	-971
▁within	-972
▁main	-973
ider	-974
▁op	-975
▁art	-976
为了	-977
然而	-978
iqu	-979
eg	-980
ruct	-981
联合国	-982
关系	-983
ining	-984
▁women	-985
ists	-986
ges	-987
更多	-988
▁leg	-989
uss	-990
cept	-991
▁play	-992
法律	-993
▁spec	-994
▁When	-995
lement	-996
获得	-997
主义	-998
▁little	-999
▁high	-1000
▁something	-1001
▁ens	-1002
建立	-1003
那些	-1004
▁poss	-1005
历史	-1006
ute	-1007
iron	-1008
▁dist	-1009
▁What	-1010
故事	-1011
▁Con	-1012
▁cr	-1013
建议	-1014
教育	-1015
来说	-1016
▁States	-1017
▁show	-1018
▁learn	-1019
▁她	-1020
能力	-1021
▁To	-1022
探索	-1023
▁provid	-1024
▁adv	-1025
▁econom	-1026
ene	-1027
▁grow	-1028
文化	-1029
ission	-1030
▁di	-1031
▁par	-1032
▁cult	-1033
▁prom	-1034
▁proble	-1035
▁cre	-1036
▁mem	-1037
地区	-1038
是否	-1039
▁min	-1040
ng	-1041
▁equ	-1042
▁dat	-1043
▁found	-1044
▁come	-1045
▁same	-1046
▁cle	-1047
参与	-1048
存在	-1049
考虑	-1050
主要	-1051
▁group	-1052
学生	-1053
▁activ	-1054
▁These	-1055
▁report	-1056
bers	-1057
ivid	-1058
是的	-1059
ature	-1060
▁pat	-1061
▁hist	-1062
▁est	-1063
新的	-1064
▁meet	-1065
▁fol	-1066
有关	-1067
ology	-1068
▁build	-1069
iving	-1070
min	-1071
▁level	-1072
导致	-1073
▁still	-1074
read	-1075
ros	-1076
尽管	-1077
ien	-1078
▁def	-1079
▁rights	-1080
▁eng	-1081
方案	-1082
ters	-1083
喜欢	-1084
只是	-1085
作用	-1086
之前	-1087
区域	-1088
day	-1089
▁better	-1090
上的	-1091
urity	-1092
ision	-1093
▁Go	-1094
▁ord	-1095
ered	-1096
ways	-1097
▁V	-1098
▁An	-1099
▁它	-1100
▁fun	-1101
ared	-1102
▁allow	-1103
erest	-1104
iness	-1105
ases	-1106
资源	-1107
ck	-1108
cing	-1109
实际	-1110
目标	-1111
ources	-1112
allen	-1113
这里	-1114
▁school	-1115
▁Nations	-1116
社区	-1117
▁country	-1118
▁trad	-1119
viron	-1120
▁ext	-1121
公司	-1122
讨论	-1123
▁sol	-1124
ars	-1125
ically	-1126
▁place	-1127
了一	-1128
▁children	-1129
ince	-1130
▁frie	-1131
要求	-1132
▁cor	-1133
得到	-1134
▁against	-1135
很多	-1136
产生	-1137
▁toget	-1138
▁together	-1139
通常	-1140
▁cent	-1141
根据	-1142
ages	-1143
▁dem	-1144
▁number	-1145
arly	-1146
科学	-1147
ality	-1148
kes	-1149
▁Is	-1150
那里	-1151
▁power	-1152
▁char	-1153
处理	-1154
对于	-1155
有效	-1156
持续	-1157
▁sit	-1158
▁impro	-1159
▁social	-1160
▁interest	-1161
▁ty	-1162
各种	-1163
提出	-1164
▁che	-1165
为什么	-1166
ior	-1167
▁She	-1168
增加	-1169
▁program	-1170
领域	-1171
ted	-1172
人类	-1173
gg	-1174
▁av	-1175
▁不	-1176
变化	-1177
ci	-1178
性的	-1179
▁public	-1180
▁dra	-1181
▁treat	-1182
ants	-1183
ittee	-1184
ork	-1185
ering	-1186
由于	-1187
ertain	-1188
urther	-1189
▁aff	-1190
感到	-1191
▁有	-1192
ix	-1193
注意	-1194
一次	-1195
itions	-1196
ention	-1197
▁ful	-1198
▁keep	-1199
▁belie	-1200
机会	-1201
abl	-1202
▁challen	-1203
▁educ	-1204
创造	-1205
▁lot	-1206
采取	-1207
▁small	-1208
▁data	-1209
不能	-1210
▁environ	-1211
▁const	-1212
▁three	-1213
ories	-1214
less	-1215
▁mean	-1216
ked	-1217
▁Ah	-1218
▁particular	-1219
▁bus	-1220
家庭	-1221
ability	-1222
▁beh	-1223
挑战	-1224
▁national	-1225
mer	-1226
▁rese	-1227
▁lar	-1228
ake	-1229
land	-1230
政策	-1231
▁hand	-1232
令人	-1233
来的	-1234
▁cap	-1235
▁state	-1236
▁fac	-1237
any	-1238
妇女	-1239
▁individ	-1240
ret	-1241
me	-1242
▁put	-1243
▁often	-1244
▁3	-1245
▁polic	-1246
▁including	-1247
▁without	-1248
▁follow	-1249
▁change	-1250
oring	-1251
▁Pro	-1252
执行	-1253
仍然	-1254
200	-1255
▁meas	-1256
如此	-1257
iven	-1258
▁invol	-1259
▁With	-1260
▁Now	-1261
那么	-1262
▁Al	-1263
10	-1264
相关	-1265
here	-1266
▁less	-1267
▁another	-1268
▁always	-1269
▁ser	-1270
ired	-1271
▁got	-1272
最后	-1273
▁individual	-1274
促进	-1275
▁saf	-1276
实现	-1277
用于	-1278
pos	-1279
ner	-1280
ateg	-1281
▁consider	-1282
ration	-1283
▁stand	-1284
不同的	-1285
iety	-1286
▁ide	-1287
▁food	-1288
▁这是	-1289
▁contro	-1290
甚至	-1291
ross	-1292
▁现在	-1293
联系	-1294
thing	-1295
儿童	-1296
ination	-1297
resent	-1298
但是	-1299
pend	-1300
朋友	-1301
▁design	-1302
随着	-1303
ier	-1304
ital	-1305
ield	-1306
ished	-1307
▁present	-1308
▁next	-1309
▁vis	-1310
此外	-1311
utions	-1312
▁understanding	-1313
▁community	-1314
▁why	-1315
措施	-1316
之间的	-1317
政治	-1318
▁这些	-1319
▁open	-1320
▁However	-1321
cil	-1322
▁dr	-1323
wards	-1324
▁enc	-1325
▁pur	-1326
▁elect	-1327
全球	-1328
▁respons	-1329
▁fut	-1330
有一个	-1331
▁oper	-1332
的事情	-1333
▁become	-1334
助于	-1335
▁using	-1336
两个	-1337
▁Committee	-1338
ral	-1339
▁environment	-1340
mb	-1341
成员	-1342
告诉	-1343
▁polit	-1344
ately	-1345
▁conn	-1346
▁el	-1347
▁last	-1348
▁rev	-1349
▁remain	-1350
▁bro	-1351
今天	-1352
▁pass	-1353
ived	-1354
是在	-1355
▁invest	-1356
无法	-1357
▁cond	-1358
be	-1359
其中	-1360
▁ris	-1361
▁land	-1362
▁never	-1363
结果	-1364
有助于	-1365
hor	-1366
情况下	-1367
▁ret	-1368
▁mar	-1369
▁del	-1370
▁dire	-1371
ances	-1372
确定	-1373
▁chang	-1374
▁一	-1375
运动	-1376
▁provide	-1377
的问题	-1378
▁occ	-1379
▁home	-1380
▁implement	-1381
▁prof	-1382
▁contrib	-1383
准备	-1384
▁mark	-1385
▁others	-1386
▁因此	-1387
ken	-1388
减少	-1389
设计	-1390
ins	-1391
▁future	-1392
▁pop	-1393
▁bo	-1394
变得	-1395
▁UN	-1396
▁establ	-1397
agement	-1398
完全	-1399
▁project	-1400
利用	-1401
▁gr	-1402
▁discuss	-1403
▁De	-1404
▁Or	-1405
lus	-1406
▁rest	-1407
▁learning	-1408
基本	-1409
▁among	-1410
成功	-1411
ouse	-1412
ling	-1413
一步	-1414
▁family	-1415
▁supp	-1416
▁ever	-1417
▁seem	-1418
控制	-1419
ds	-1420
▁order	-1421
▁old	-1422
自然	-1423
动物	-1424
over	-1425
▁various	-1426
ined	-1427
一下	-1428
ope	-1429
▁point	-1430
ccess	-1431
imes	-1432
▁pot	-1433
▁called	-1434
真的	-1435
改变	-1436
▁redu	-1437
▁ident	-1438
而且	-1439
记住	-1440
一直	-1441
▁best	-1442
ense	-1443
ploy	-1444
oura	-1445
治疗	-1446
▁thing	-1447
▁issues	-1448
▁然后	-1449
基础	-1450
接受	-1451
分析	-1452
▁fore	-1453
▁At	-1454
出现	-1455
艺术	-1456
ently	-1457
aring	-1458
▁wr	-1459
▁few	-1460
和平	-1461
提高	-1462
她的	-1463
pr	-1464
▁resources	-1465
▁upon	-1466
▁concern	-1467
▁list	-1468
▁give	-1469
▁special	-1470
▁regard	-1471
真正	-1472
19	-1473
复杂	-1474
▁eas	-1475
eah	-1476
itive	-1477
ilit	-1478
▁respect	-1479
受到	-1480
▁turn	-1481
想象	-1482
pecial	-1483
原因	-1484
uation	-1485
生物	-1486
每个	-1487
00	-1488
▁move	-1489
hing	-1490
具有	-1491
定的	-1492
▁business	-1493
▁big	-1494
up	-1495
▁access	-1496
例如	-1497
▁signific	-1498
你知道	-1499
▁further	-1500
▁foc	-1501
▁One	-1502
程序	-1503
▁hard	-1504
▁view	-1505
▁making	-1506
ank	-1507
ote	-1508
▁bene	-1509
▁Ad	-1510
▁body	-1511
▁activities	-1512
ivers	-1513
rent	-1514
权利	-1515
itional	-1516
▁working	-1517
完成	-1518
▁students	-1519
▁sl	-1520
ason	-1521
▁ensure	-1522
ime	-1523
ouncil	-1524
med	-1525
之一	-1526
意识	-1527
por	-1528
中心	-1529
▁tell	-1530
▁love	-1531
▁specific	-1532
共同	-1533
ilities	-1534
都是	-1535
▁vi	-1536
iod	-1537
▁step	-1538
eration	-1539
的时候	-1540
▁effective	-1541
▁certain	-1542
ogn	-1543
▁bre	-1544
▁away	-1545
▁Um	-1546
ale	-1547
经历	-1548
▁create	-1549
ock	-1550
▁success	-1551
▁actually	-1552
ulation	-1553
学校	-1554
身体	-1555
leg	-1556
▁members	-1557
▁finan	-1558
pportun	-1559
▁represent	-1560
ased	-1561
人权	-1562
▁able	-1563
▁peace	-1564
erm	-1565
selves	-1566
▁focus	-1567
▁author	-1568
▁necess	-1569
inal	-1570
▁通过	-1571
▁class	-1572
▁role	-1573
ger	-1574
▁ess	-1575
▁address	-1576
整个	-1577
app	-1578
▁head	-1579
责任	-1580
▁anal	-1581
过去	-1582
有一	-1583
▁对	-1584
表示	-1585
atic	-1586
▁bra	-1587
ibility	-1588
▁particip	-1589
▁opportun	-1590
▁example	-1591
fic	-1592
▁result	-1593
▁Re	-1594
▁question	-1595
▁course	-1596
▁air	-1597
重要的	-1598
▁Ex	-1599
▁possible	-1600
事实	-1601
raph	-1602
▁thought	-1603
了一个	-1604
▁rele	-1605
▁means	-1606
▁mater	-1607
找到	-1608
▁strong	-1609
知识	-1610
▁areas	-1611
amp	-1612
最终	-1613
▁security	-1614
▁State	-1615
▁control	-1616
▁mind	-1617
chie	-1618
az	-1619
▁proper	-1620
▁meth	-1621
每个人	-1622
oss	-1623
▁mus	-1624
ued	-1625
▁然而	-1626
来自	-1627
ina	-1628
▁glob	-1629
▁happen	-1630
▁unt	-1631
▁Let	-1632
并且	-1633
意味	-1634
自由	-1635
▁case	-1636
▁today	-1637
▁product	-1638
▁assist	-1639
的工作	-1640
传统	-1641
▁es	-1642
▁viol	-1643
多数	-1644
▁prevent	-1645
▁efforts	-1646
▁young	-1647
▁history	-1648
▁jo	-1649
的地方	-1650
▁wee	-1651
加强	-1652
实际上	-1653
积极	-1654
意味着	-1655
▁economic	-1656
reng	-1657
▁met	-1658
▁four	-1659
▁doing	-1660
ets	-1661
▁education	-1662
▁men	-1663
ills	-1664
进入	-1665
ergy	-1666
▁perform	-1667
必要	-1668
▁strateg	-1669
还是	-1670
▁top	-1671
▁research	-1672
▁local	-1673
▁201	-1674
虽然	-1675
调查	-1676
ique	-1677
▁light	-1678
▁All	-1679
▁On	-1680
目前	-1681
并不	-1682
▁impact	-1683
▁relations	-1684
▁war	-1685
▁Government	-1686
▁beg	-1687
城市	-1688
风险	-1689
▁towards	-1690
▁since	-1691
▁method	-1692
iting	-1693
par	-1694
▁common	-1695
分享	-1696
▁express	-1697
▁continue	-1698
的方式	-1699
▁object	-1700
欢迎	-1701
uro	-1702
▁friends	-1703
▁achie	-1704
价值	-1705
▁came	-1706
ials	-1707
ication	-1708
▁Council	-1709
▁streng	-1710
如果你	-1711
是什么	-1712
部门	-1713
拥有	-1714
▁sure	-1715
▁rece	-1716
angu	-1717
oney	-1718
▁period	-1719
第二	-1720
中国	-1721
▁government	-1722
ency	-1723
▁Af	-1724
ference	-1725
还有	-1726
工具	-1727
▁direct	-1728
ples	-1729
ised	-1730
▁loo	-1731
食物	-1732
▁Sec	-1733
▁second	-1734
▁ey	-1735
评估	-1736
做出	-1737
严重	-1738
izing	-1739
▁crit	-1740
▁area	-1741
▁recomm	-1742
▁protect	-1743
关键	-1744
▁ah	-1745
▁needs	-1746
▁large	-1747
meric	-1748
期间	-1749
▁mom	-1750
▁field	-1751
▁从	-1752
come	-1753
▁Ind	-1754
▁significant	-1755
▁based	-1756
▁potential	-1757
▁political	-1758
▁Americ	-1759
ron	-1760
▁pa	-1761
的东西	-1762
感觉	-1763
ults	-1764
ians	-1765
iver	-1766
▁run	-1767
outh	-1768
▁ways	-1769
atives	-1770
ably	-1771
▁along	-1772
▁across	-1773
深入	-1774
▁ge	-1775
▁age	-1776
▁Be	-1777
▁lim	-1778
因素	-1779
line	-1780
任务	-1781
▁cho	-1782
解释	-1783
▁exc	-1784
语言	-1785
ivil	-1786
ified	-1787
▁experience	-1788
也许	-1789
▁having	-1790
▁financial	-1791
▁Some	-1792
利亚	-1793
▁improve	-1794
▁current	-1795
▁因为	-1796
▁affect	-1797
▁far	-1798
orth	-1799
计算	-1800
我们将	-1801
io	-1802
标准	-1803
应用	-1804
▁cost	-1805
▁langu	-1806
▁tre	-1807
▁done	-1808
▁collect	-1809
ead	-1810
aut	-1811
▁connect	-1812
▁Ar	-1813
ards	-1814
▁是的	-1815
irc	-1816
企业	-1817
结构	-1818
rom	-1819
进一步	-1820
aff	-1821
ify	-1822
我想	-1823
大多数	-1824
▁whether	-1825
▁past	-1826
▁mov	-1827
▁prin	-1828
关注	-1829
▁sever	-1830
精神	-1831
▁enough	-1832
etimes	-1833
意义	-1834
▁global	-1835
omes	-1836
▁pain	-1837
▁remember	-1838
▁caus	-1839
na	-1840
▁exist	-1841
▁ve	-1842
涉及	-1843
▁essential	-1844
▁services	-1845
你可以	-1846
似乎	-1847
▁avail	-1848
▁test	-1849
▁opt	-1850
▁taken	-1851
文件	-1852
无论	-1853
▁experien	-1854
先生	-1855
▁energy	-1856
不仅	-1857
atch	-1858
ged	-1859
▁charact	-1860
▁applic	-1861
的影响	-1862
ert	-1863
▁offic	-1864
事件	-1865
认识	-1866
容易	-1867
相信	-1868
▁fre	-1869
▁dep	-1870
▁explore	-1871
▁problem	-1872
▁Well	-1873
想法	-1874
生产	-1875
▁times	-1876
▁199	-1877
带来	-1878
▁fas	-1879
▁Im	-1880
那个	-1881
更加	-1882
▁management	-1883
造成	-1884
市场	-1885
fully	-1886
的一个	-1887
▁init	-1888
ficult	-1889
▁sw	-1890
网络	-1891
疾病	-1892
▁wond	-1893
▁maj	-1894
鼓励	-1895
▁nat	-1896
表明	-1897
事会	-1898
▁month	-1899
▁anim	-1900
某些	-1901
空间	-1902
▁everyone	-1903
▁neg	-1904
同样	-1905
形式	-1906
▁recogn	-1907
▁phys	-1908
duct	-1909
▁difficult	-1910
▁until	-1911
▁benef	-1912
abor	-1913
▁money	-1914
▁left	-1915
简单	-1916
▁recommend	-1917
产品	-1918
ium	-1919
另一个	-1920
imate	-1921
▁free	-1922
的重要	-1923
ffic	-1924
▁coop	-1925
植物	-1926
▁complex	-1927
条件	-1928
ream	-1929
idence	-1930
课程	-1931
▁appre	-1932
▁你知道	-1933
充满	-1934
aking	-1935
▁live	-1936
几乎	-1937
ession	-1938
未来	-1939
▁several	-1940
结束	-1941
和其他	-1942
joy	-1943
▁pay	-1944
试图	-1945
rop	-1946
即使	-1947
oms	-1948
材料	-1949
▁expect	-1950
▁house	-1951
idd	-1952
▁full	-1953
▁society	-1954
▁close	-1955
参加	-1956
▁mult	-1957
▁该	-1958
▁emb	-1959
ging	-1960
▁five	-1961
▁circ	-1962
▁given	-1963
下来	-1964
▁questions	-1965
至关	-1966
实施	-1967
也是	-1968
这样的	-1969
▁Rep	-1970
▁tem	-1971
▁due	-1972
▁action	-1973
▁problems	-1974
到的	-1975
▁story	-1976
ledge	-1977
您的	-1978
▁obs	-1979
▁shall	-1980
▁once	-1981
▁study	-1982
需求	-1983
提供了	-1984
▁4	-1985
人民	-1986
▁jour	-1987
iter	-1988
▁policy	-1989
▁days	-1990
▁instit	-1991
▁fund	-1992
取得	-1993
▁typ	-1994
而不是	-1995
▁require	-1996
olution	-1997
之后	-1998
arth	-1999
▁maintain	-2000
▁struct	-2001
inking	-2002
ids	-2003
▁infl	-2004
▁encoura	-2005
▁technology	-2006
力量	-2007
尤其	-2008
▁appreci	-2009
▁major	-2010
asing	-2011
▁cal	-2012
在一起	-2013
年轻	-2014
你们	-2015
▁civil	-2016
▁press	-2017
▁comb	-2018
▁inde	-2019
类型	-2020
osed	-2021
izations	-2022
面临	-2023
▁measures	-2024
投资	-2025
▁side	-2026
第一	-2027
▁makes	-2028
▁gre	-2029
▁employ	-2030
▁While	-2031
▁progress	-2032
els	-2033
▁went	-2034
ording	-2035
▁hold	-2036
▁whole	-2037
▁bring	-2038
▁face	-2039
者的	-2040
开发	-2041
大学	-2042
port	-2043
数字	-2044
▁didn	-2045
强调	-2046
ides	-2047
▁relationship	-2048
▁tool	-2049
观察	-2050
urope	-2051
怎么	-2052
hers	-2053
▁necessary	-2054
side	-2055
宗教	-2056
及其	-2057
▁account	-2058
是一种	-2059
独特	-2060
ney	-2061
内容	-2062
有趣	-2063
isions	-2064
▁enjoy	-2065
世纪	-2066
▁deep	-2067
▁Afric	-2068
▁此外	-2069
▁someone	-2070
▁cases	-2071
augh	-2072
▁dev	-2073
▁team	-2074
▁No	-2075
公共	-2076
▁challenges	-2077
▁ur	-2078
▁beaut	-2079
▁practice	-2080
力的	-2081
它的	-2082
▁situation	-2083
▁early	-2084
tend	-2085
▁Then	-2086
在这里	-2087
▁key	-2088
范围	-2089
▁talk	-2090
▁space	-2091
oci	-2092
不知道	-2093
经常	-2094
▁Rem	-2095
展示	-2096
ury	-2097
援助	-2098
是一	-2099
ators	-2100
▁risk	-2101
▁developing	-2102
作出	-2103
ont	-2104
bs	-2105
ready	-2106
ats	-2107
▁hope	-2108
▁如果你	-2109
ological	-2110
erc	-2111
概念	-2112
这一点	-2113
▁review	-2114
允许	-2115
▁yet	-2116
▁took	-2117
ners	-2118
man	-2119
ocu	-2120
▁available	-2121
▁indust	-2122
▁training	-2123
illed	-2124
▁heart	-2125
医生	-2126
▁contain	-2127
领导	-2128
▁works	-2129
▁matter	-2130
itted	-2131
agine	-2132
▁groups	-2133
▁growth	-2134
pecially	-2135
▁After	-2136
提交	-2137
基金	-2138
▁provided	-2139
ither	-2140
当地	-2141
好吧	-2142
ousand	-2143
▁already	-2144
水平	-2145
更好	-2146
制定	-2147
直接	-2148
记录	-2149
规定	-2150
几个	-2151
▁begin	-2152
▁5	-2153
问题的	-2154
ief	-2155
▁systems	-2156
总是	-2157
orn	-2158
12	-2159
▁legal	-2160
aces	-2161
utes	-2162
▁Sh	-2163
以便	-2164
▁wal	-2165
use	-2166
专业	-2167
欧洲	-2168
程度	-2169
专家	-2170
▁meeting	-2171
▁market	-2172
▁那	-2173
是如何	-2174
▁nature	-2175
▁hour	-2176
▁job	-2177
音乐	-2178
fort	-2179
法院	-2180
▁yourself	-2181
▁needed	-2182
stain	-2183
▁bit	-2184
▁thousand	-2185
▁building	-2186
缔约	-2187
建筑	-2188
ided	-2189
▁mor	-2190
▁try	-2191
▁jud	-2192
角色	-2193
确实	-2194
检查	-2195
vious	-2196
▁throughout	-2197
aps	-2198
直到	-2199
形成	-2200
▁share	-2201
都有	-2202
方面的	-2203
▁flow	-2204
指出	-2205
▁sound	-2206
▁conditions	-2207
正确	-2208
ird	-2209
声音	-2210
▁lives	-2211
首先	-2212
▁reason	-2213
举行	-2214
非洲	-2215
▁agree	-2216
另一	-2217
▁natural	-2218
▁living	-2219
冲突	-2220
▁unique	-2221
▁Do	-2222
改善	-2223
医疗	-2224
斯坦	-2225
▁Commission	-2226
▁sustain	-2227
acy	-2228
尊重	-2229
▁cause	-2230
▁taking	-2231
▁prep	-2232
▁themselves	-2233
▁arr	-2234
▁propos	-2235
▁为了	-2236
▁deb	-2237
▁integ	-2238
有些	-2239
▁relig	-2240
重新	-2241
▁ans	-2242
看起来	-2243
看看	-2244
更多的	-2245
▁ground	-2246
▁priv	-2247
▁dise	-2248
▁docu	-2249
平等	-2250
▁compl	-2251
理事会	-2252
▁stat	-2253
▁wa	-2254
chan	-2255
过程中	-2256
审查	-2257
ims	-2258
▁尽管	-2259
离开	-2260
ape	-2261
▁scient	-2262
▁words	-2263
aren	-2264
各国	-2265
▁believe	-2266
▁deal	-2267
不断	-2268
的最	-2269
▁knowledge	-2270
测试	-2271
ules	-2272
▁started	-2273
困难	-2274
▁include	-2275
ament	-2276
▁attention	-2277
的大	-2278
阅读	-2279
ints	-2280
▁adop	-2281
证明	-2282
rodu	-2283
▁Just	-2284
ug	-2285
▁function	-2286
限制	-2287
避免	-2288
▁net	-2289
只有	-2290
不要	-2291
ograph	-2292
培训	-2293
▁issue	-2294
生命	-2295
▁seen	-2296
▁这个	-2297
▁sing	-2298
周围	-2299
▁comes	-2300
ising	-2301
在那里	-2302
技能	-2303
ext	-2304
目的	-2305
原则	-2306
▁book	-2307
设备	-2308
▁我想	-2309
ls	-2310
▁return	-2311
▁especially	-2312
▁reflect	-2313
▁general	-2314
▁line	-2315
ource	-2316
▁skills	-2317
▁writ	-2318
ured	-2319
body	-2320
▁sum	-2321
ror	-2322
▁clear	-2323
elt	-2324
反应	-2325
▁changes	-2326
▁language	-2327
▁communities	-2328
▁ill	-2329
ilar	-2330
ires	-2331
协调	-2332
▁May	-2333
▁stories	-2334
性和	-2335
▁一个	-2336
▁establish	-2337
vant	-2338
cies	-2339
▁ele	-2340
适当	-2341
not	-2342
应对	-2343
▁held	-2344
不可	-2345
▁organizations	-2346
▁Europe	-2347
▁Pe	-2348
经验	-2349
▁compet	-2350
aster	-2351
小组	-2352
具体	-2353
ification	-2354
我们可以	-2355
oot	-2356
所有的	-2357
▁stay	-2358
▁cooperation	-2359
▁mag	-2360
尝试	-2361
▁Which	-2362
▁ear	-2363
武器	-2364
work	-2365
觉得	-2366
▁Wor	-2367
▁looking	-2368
战略	-2369
▁er	-2370
verse	-2371
压力	-2372
▁party	-2373
有时	-2374
inating	-2375
对话	-2376
ched	-2377
ety	-2378
表现	-2379
寻找	-2380
▁Remember	-2381
观点	-2382
量的	-2383
istic	-2384
▁staff	-2385
▁results	-2386
though	-2387
▁mot	-2388
▁everything	-2389
▁Can	-2390
▁hig	-2391
▁Have	-2392
▁coll	-2393
游戏	-2394
▁New	-2395
实践	-2396
▁levels	-2397
增长	-2398
广泛	-2399
▁subject	-2400
再次	-2401
most	-2402
▁与	-2403
▁city	-2404
ison	-2405
minist	-2406
ening	-2407
kay	-2408
你会	-2409
▁stop	-2410
crib	-2411
▁z	-2412
ulations	-2413
除了	-2414
▁personal	-2415
oman	-2416
alf	-2417
▁gen	-2418
ruction	-2419
探讨	-2420
兴趣	-2421
意见	-2422
死亡	-2423
ones	-2424
ump	-2425
ipp	-2426
ients	-2427
▁sect	-2428
▁moment	-2429
▁Intern	-2430
undred	-2431
▁My	-2432
上帝	-2433
地球	-2434
▁short	-2435
lusion	-2436
▁famil	-2437
▁bal	-2438
▁idea	-2439
▁pie	-2440
▁complete	-2441
icle	-2442
ises	-2443
▁regional	-2444
aging	-2445
▁mill	-2446
▁least	-2447
sequ	-2448
▁increase	-2449
▁individuals	-2450
年的	-2451
国家的	-2452
▁Se	-2453
▁ple	-2454
▁post	-2455
▁night	-2456
▁Me	-2457
开展	-2458
oid	-2459
英国	-2460
rim	-2461
想要	-2462
▁known	-2463
▁quick	-2464
发挥	-2465
▁later	-2466
▁importance	-2467
▁assistance	-2468
mes	-2469
称为	-2470
▁sometimes	-2471
omp	-2472
让我	-2473
▁protection	-2474
cer	-2475
ator	-2476
▁sent	-2477
▁Bec	-2478
osp	-2479
指导	-2480
▁miss	-2481
资金	-2482
土地	-2483
▁cust	-2484
人口	-2485
▁lo	-2486
从而	-2487
一切	-2488
for	-2489
有人	-2490
▁name	-2491
▁abs	-2492
▁six	-2493
模式	-2494
主题	-2495
▁mechan	-2496
▁occur	-2497
▁value	-2498
▁hundred	-2499
ental	-2500
▁trying	-2501
犯罪	-2502
组成	-2503
▁wind	-2504
▁enh	-2505
iple	-2506
这么	-2507
足够	-2508
▁comput	-2509
fer	-2510
▁vol	-2511
▁harm	-2512
放在	-2513
▁positive	-2514
▁following	-2515
▁conflic	-2516
表达	-2517
▁influ	-2518
▁aspect	-2519
rap	-2520
背景	-2521
意识到	-2522
▁orig	-2523
unt	-2524
oming	-2525
tle	-2526
ivity	-2527
▁type	-2528
▁strengt	-2529
ash	-2530
女性	-2531
▁promot	-2532
出来	-2533
▁His	-2534
▁yeah	-2535
▁exploring	-2536
现代	-2537
▁rather	-2538
承诺	-2539
规则	-2540
rist	-2541
▁character	-2542
▁dom	-2543
▁associ	-2544
设施	-2545
pri	-2546
ried	-2547
▁detail	-2548
▁implementation	-2549
▁quality	-2550
▁cell	-2551
▁将	-2552
我认为	-2553
▁behind	-2554
物质	-2555
▁death	-2556
▁getting	-2557
机制	-2558
▁um	-2559
▁China	-2560
▁En	-2561
来越	-2562
go	-2563
▁prob	-2564
威胁	-2565
贸易	-2566
uge	-2567
越来越	-2568
的话	-2569
▁Through	-2570
▁prior	-2571
▁sense	-2572
▁dam	-2573
显示	-2574
overed	-2575
▁guid	-2576
▁behav	-2577
这样做	-2578
▁record	-2579
可持续	-2580
大会	-2581
semb	-2582
▁indic	-2583
▁room	-2584
ane	-2585
加入	-2586
▁helps	-2587
▁gir	-2588
ames	-2589
面的	-2590
▁emp	-2591
11	-2592
大约	-2593
ots	-2594
▁answ	-2595
▁sal	-2596
▁norm	-2597
利益	-2598
危险	-2599
独立	-2600
▁similar	-2601
▁approach	-2602
思考	-2603
状况	-2604
ively	-2605
贡献	-2606
战争	-2607
暴力	-2608
注意到	-2609
▁fil	-2610
你在	-2611
ences	-2612
恢复	-2613
伙伴	-2614
▁terms	-2615
▁bar	-2616
rad	-2617
制作	-2618
▁cannot	-2619
错误	-2620
▁Because	-2621
▁forward	-2622
吸引	-2623
▁however	-2624
▁fail	-2625
▁subst	-2626
就会	-2627
相互	-2628
▁hy	-2629
最近	-2630
▁science	-2631
▁dest	-2632
▁soon	-2633
比如	-2634
来到	-2635
▁inn	-2636
iction	-2637
▁paper	-2638
▁lay	-2639
功能	-2640
▁blood	-2641
寻求	-2642
位置	-2643
▁cultural	-2644
▁spir	-2645
▁safe	-2646
制度	-2647
▁anything	-2648
工程	-2649
rict	-2650
aged	-2651
负责	-2652
▁assess	-2653
inary	-2654
▁required	-2655
▁appropri	-2656
心理	-2657
▁appear	-2658
▁ask	-2659
uck	-2660
▁friend	-2661
防止	-2662
▁saw	-2663
可能是	-2664
▁super	-2665
▁aware	-2666
民主	-2667
▁Not	-2668
作品	-2669
丰富	-2670
障碍	-2671
▁heard	-2672
ery	-2673
atory	-2674
▁treatment	-2675
药物	-2676
▁capac	-2677
▁aud	-2678
▁achieve	-2679
rate	-2680
▁fav	-2681
▁says	-2682
群体	-2683
▁near	-2684
细胞	-2685
▁cru	-2686
▁cra	-2687
▁sort	-2688
尼亚	-2689
▁Mr	-2690
▁imm	-2691
▁week	-2692
▁emot	-2693
▁service	-2694
apt	-2695
▁else	-2696
▁6	-2697
▁conduct	-2698
描述	-2699
oll	-2700
用的	-2701
▁fasc	-2702
▁fu	-2703
印度	-2704
▁eyes	-2705
永远	-2706
▁gain	-2707
enty	-2708
▁wanted	-2709
▁quite	-2710
▁region	-2711
▁18	-2712
▁hear	-2713
anced	-2714
以前	-2715
▁practices	-2716
rated	-2717
▁event	-2718
▁particularly	-2719
▁experiences	-2720
iful	-2721
共和	-2722
▁culture	-2723
▁fram	-2724
ari	-2725
▁threat	-2726
▁camp	-2727
▁unc	-2728
ceed	-2729
▁sex	-2730
onst	-2731
▁ste	-2732
▁felt	-2733
ode	-2734
的时间	-2735
说明	-2736
▁Gener	-2737
▁本	-2738
司法	-2739
▁exerc	-2740
谈论	-2741
▁第	-2742
rought	-2743
▁company	-2744
now	-2745
▁More	-2746
▁doesn	-2747
▁histor	-2748
气候	-2749
每天	-2750
▁introdu	-2751
▁Once	-2752
▁related	-2753
ips	-2754
这就是	-2755
▁teach	-2756
une	-2757
▁true	-2758
▁regular	-2759
▁milit	-2760
lying	-2761
artment	-2762
▁journey	-2763
▁proced	-2764
件事	-2765
nces	-2766
▁opportunities	-2767
▁sun	-2768
▁ce	-2769
▁investig	-2770
iversity	-2771
练习	-2772
父母	-2773
▁entire	-2774
▁effic	-2775
充分	-2776
ches	-2777
多样	-2778
▁leaders	-2779
▁bud	-2780
▁thinking	-2781
iation	-2782
ored	-2783
▁low	-2784
▁bi	-2785
ister	-2786
▁sat	-2787
▁consum	-2788
▁.	-2789
小时	-2790
阶段	-2791
同意	-2792
▁最后	-2793
▁vict	-2794
oved	-2795
代表团	-2796
▁serious	-2797
▁teac	-2798
▁analys	-2799
▁cla	-2800
ton	-2801
时期	-2802
▁Who	-2803
▁developed	-2804
▁item	-2805
收集	-2806
内部	-2807
国的	-2808
▁steps	-2809
▁Res	-2810
感谢	-2811
访问	-2812
媒体	-2813
▁relevant	-2814
移动	-2815
做的	-2816
▁emerg	-2817
ggest	-2818
▁increasing	-2819
▁ann	-2820
sembly	-2821
▁began	-2822
资料	-2823
想象一下	-2824
▁continued	-2825
▁sens	-2826
▁tar	-2827
▁addition	-2828
一致	-2829
▁involved	-2830
▁mess	-2831
进展	-2832
快乐	-2833
▁music	-2834
▁red	-2835
sy	-2836
▁nothing	-2837
▁became	-2838
才能	-2839
▁fig	-2840
fect	-2841
ooks	-2842
▁fall	-2843
一定	-2844
▁draft	-2845
hold	-2846
oint	-2847
▁monit	-2848
▁parties	-2849
以来	-2850
ctions	-2851
way	-2852
▁cut	-2853
它们的	-2854
▁simple	-2855
▁events	-2856
美丽	-2857
hens	-2858
把它	-2859
▁trade	-2860
ption	-2861
三个	-2862
▁dig	-2863
证据	-2864
平衡	-2865
预防	-2866
承认	-2867
▁coming	-2868
▁outside	-2869
▁,	-2870
▁accept	-2871
bit	-2872
uable	-2873
▁vir	-2874
▁govern	-2875
arents	-2876
▁model	-2877
ring	-2878
▁suggest	-2879
欣赏	-2880
以色	-2881
▁随着	-2882
以色列	-2883
▁itself	-2884
▁Part	-2885
并在	-2886
▁liter	-2887
好奇	-2888
▁asked	-2889
▁creating	-2890
▁policies	-2891
ables	-2892
▁Min	-2893
有多	-2894
的所有	-2895
eral	-2896
idered	-2897
哪里	-2898
进程	-2899
的一部分	-2900
▁rad	-2901
正如	-2902
ened	-2903
▁violence	-2904
▁wel	-2905
▁subm	-2906
▁position	-2907
满足	-2908
▁Yeah	-2909
▁ten	-2910
公民	-2911
rug	-2912
▁pred	-2913
种族	-2914
都会	-2915
介绍	-2916
潜在	-2917
实验	-2918
至关重要	-2919
isl	-2920
ications	-2921
▁established	-2922
办法	-2923
▁months	-2924
创建	-2925
appy	-2926
可以在	-2927
总统	-2928
▁modern	-2929
▁physical	-2930
▁tas	-2931
适应	-2932
的小	-2933
引起	-2934
▁Many	-2935
▁pattern	-2936
▁observ	-2937
咨询	-2938
▁learned	-2939
▁关于	-2940
▁bir	-2941
框架	-2942
办公	-2943
arian	-2944
▁这种	-2945
▁explain	-2946
策略	-2947
ached	-2948
学家	-2949
▁Why	-2950
性别	-2951
lear	-2952
mber	-2953
▁deleg	-2954
团队	-2955
卫生	-2956
商业	-2957
▁plant	-2958
▁considered	-2959
特别是	-2960
▁doct	-2961
▁Te	-2962
▁prim	-2963
▁decision	-2964
▁为	-2965
rip	-2966
享受	-2967
眼睛	-2968
▁draw	-2969
oph	-2970
▁beautiful	-2971
▁capt	-2972
▁From	-2973
这项	-2974
yond	-2975
那样	-2976
▁bur	-2977
▁decided	-2978
▁partners	-2979
的情况	-2980
质量	-2981
erve	-2982
rael	-2983
▁sle	-2984
▁maybe	-2985
职业	-2986
▁therefore	-2987
▁deter	-2988
▁safety	-2989
▁told	-2990
▁fair	-2991
▁Sc	-2992
pite	-2993
▁compan	-2994
▁administ	-2995
特定	-2996
▁由于	-2997
做法	-2998
uly	-2999
▁environmental	-3000
▁eight	-3001
▁speak	-3002
至少	-3003
▁valuable	-3004
▁almost	-3005
by	-3006
oon	-3007
电子	-3008
愉快	-3009
▁Eng	-3010
▁initi	-3011
▁clean	-3012
预算	-3013
ush	-3014
▁population	-3015
维持	-3016
▁select	-3017
▁convers	-3018
例子	-3019
uff	-3020
的国家	-3021
▁"	-3022
▁reach	-3023
理论	-3024
▁usually	-3025
▁Fin	-3026
▁虽然	-3027
▁heav	-3028
听到	-3029
出了	-3030
▁委员会	-3031
ony	-3032
▁break	-3033
▁trust	-3034
银行	-3035
网站	-3036
回到	-3037
▁mother	-3038
▁我认为	-3039
▁General	-3040
数量	-3041
▁communication	-3042
▁request	-3043
▁fire	-3044
▁black	-3045
巨大的	-3046
▁above	-3047
odies	-3048
▁rules	-3049
▁fa	-3050
▁bad	-3051
▁ago	-3052
▁force	-3053
类似	-3054
▁allows	-3055
建设	-3056
稳定	-3057
模型	-3058
反对	-3059
▁没有	-3060
来源	-3061
▁either	-3062
▁medical	-3063
化的	-3064
▁10	-3065
▁god	-3066
一点	-3067
当你	-3068
iques	-3069
公平	-3070
事务	-3071
▁tools	-3072
相当	-3073
特殊	-3074
▁appropriate	-3075
▁stress	-3076
▁commit	-3077
▁types	-3078
iddle	-3079
▁brain	-3080
改革	-3081
选举	-3082
medi	-3083
▁fascinating	-3084
▁ant	-3085
▁military	-3086
den	-3087
▁materials	-3088
定期	-3089
▁himself	-3090
▁animals	-3091
▁demand	-3092
my	-3093
主席	-3094
▁surf	-3095
▁vo	-3096
▁parts	-3097
▁insp	-3098
▁critical	-3099
▁white	-3100
▁knew	-3101
▁text	-3102
▁travel	-3103
ule	-3104
aves	-3105
ban	-3106
▁higher	-3107
▁hours	-3108
aced	-3109
审议	-3110
▁broad	-3111
回答	-3112
的方法	-3113
信仰	-3114
▁Off	-3115
▁Pl	-3116
ests	-3117
▁slow	-3118
▁evidence	-3119
aries	-3120
规划	-3121
▁programme	-3122
我在	-3123
▁soft	-3124
▁opp	-3125
的信息	-3126
light	-3127
▁leave	-3128
▁spirit	-3129
ole	-3130
发展中	-3131
▁media	-3132
▁hands	-3133
15	-3134
▁Happy	-3135
的故事	-3136
这是一个	-3137
▁hon	-3138
ees	-3139
基于	-3140
encies	-3141
针对	-3142
▁amount	-3143
▁engine	-3144
步骤	-3145
▁news	-3146
谈判	-3147
▁persons	-3148
▁Develop	-3149
现实	-3150
▁loss	-3151
▁cit	-3152
lish	-3153
竞争	-3154
▁interact	-3155
旨在	-3156
识别	-3157
▁cover	-3158
▁mass	-3159
▁prec	-3160
▁context	-3161
▁watch	-3162
的新	-3163
ray	-3164
▁factors	-3165
有点	-3166
▁brought	-3167
身份	-3168
yc	-3169
▁opportunity	-3170
▁exact	-3171
缔约国	-3172
培养	-3173
恐怖	-3174
uted	-3175
▁increased	-3176
▁win	-3177
每个人都	-3178
▁likely	-3179
很快	-3180
▁la	-3181
应当	-3182
降低	-3183
aving	-3184
▁fost	-3185
旅行	-3186
一项	-3187
机器	-3188
▁beyond	-3189
连接	-3190
超过	-3191
ift	-3192
制造	-3193
秘书	-3194
urs	-3195
onna	-3196
▁stru	-3197
▁profess	-3198
▁eth	-3199
▁pict	-3200
▁arg	-3201
让你	-3202
▁according	-3203
▁compre	-3204
相同	-3205
▁lib	-3206
▁single	-3207
我们在	-3208
reme	-3209
▁production	-3210
▁half	-3211
30	-3212
接触	-3213
明确	-3214
▁Assembly	-3215
▁promote	-3216
▁disease	-3217
▁performance	-3218
oard	-3219
head	-3220
▁suff	-3221
很好	-3222
部队	-3223
pts	-3224
明显	-3225
▁greater	-3226
▁capacity	-3227
co	-3228
▁basis	-3229
▁states	-3230
pose	-3231
▁talking	-3232
电影	-3233
▁好吧	-3234
▁looked	-3235
▁Even	-3236
传播	-3237
▁mach	-3238
▁coun	-3239
▁legisl	-3240
▁consult	-3241
▁institutions	-3242
行政	-3243
eng	-3244
▁target	-3245
▁Republic	-3246
▁word	-3247
▁eval	-3248
▁Le	-3249
18	-3250
状态	-3251
▁inside	-3252
ilt	-3253
▁parents	-3254
定义	-3255
尤其是	-3256
▁offer	-3257
警察	-3258
▁International	-3259
▁contribute	-3260
▁vide	-3261
草案	-3262
所需	-3263
调整	-3264
▁justice	-3265
有的	-3266
itation	-3267
▁meaning	-3268
化学	-3269
erous	-3270
ply	-3271
成本	-3272
训练	-3273
▁1.	-3274
▁material	-3275
情感	-3276
ung	-3277
ned	-3278
▁ones	-3279
▁online	-3280
往往	-3281
联邦	-3282
▁perspect	-3283
▁police	-3284
破坏	-3285
▁总	-3286
成长	-3287
▁methods	-3288
▁smo	-3289
airs	-3290
▁climate	-3291
▁ready	-3292
▁corre	-3293
交流	-3294
神经	-3295
推动	-3296
▁independ	-3297
决议	-3298
▁coord	-3299
equ	-3300
▁easy	-3301
▁projects	-3302
fact	-3303
增强	-3304
▁aim	-3305
▁phot	-3306
▁Sp	-3307
irm	-3308
▁fight	-3309
▁private	-3310
内的	-3311
▁Cent	-3312
联盟	-3313
差异	-3314
更好地	-3315
▁conclusion	-3316
被称为	-3317
nding	-3318
▁analysis	-3319
安排	-3320
分钟	-3321
▁laws	-3322
色的	-3323
费用	-3324
ai	-3325
的情况下	-3326
▁probably	-3327
tion	-3328
缺乏	-3329
itud	-3330
▁sil	-3331
▁depend	-3332
view	-3333
arent	-3334
愿意	-3335
▁consist	-3336
onse	-3337
▁lab	-3338
某种	-3339
将其	-3340
▁road	-3341
▁longer	-3342
唯一	-3343
▁stra	-3344
电话	-3345
▁programmes	-3346
vere	-3347
的能力	-3348
办公室	-3349
普遍	-3350
▁gender	-3351
ciples	-3352
能源	-3353
不得	-3354
曾经	-3355
速度	-3356
的重要性	-3357
uclear	-3358
yn	-3359
外的	-3360
失去	-3361
▁ut	-3362
地位	-3363
担心	-3364
▁对于	-3365
▁decisions	-3366
▁Israel	-3367
▁innov	-3368
▁repl	-3369
▁court	-3370
案件	-3371
后的	-3372
适合	-3373
▁hor	-3374
▁tot	-3375
爱的	-3376
▁basic	-3377
下的	-3378
▁Inst	-3379
▁additional	-3380
▁takes	-3381
▁separ	-3382
▁ability	-3383
▁appe	-3384
▁7	-3385
ax	-3386
▁benefits	-3387
女孩	-3388
价格	-3389
孩子们	-3390
▁Security	-3391
▁anc	-3392
附近	-3393
▁gonna	-3394
▁plants	-3395
▁crucial	-3396
▁products	-3397
▁Add	-3398
▁techniques	-3399
itting	-3400
hood	-3401
lig	-3402
收入	-3403
基督	-3404
▁provides	-3405
进行了	-3406
▁custom	-3407
▁values	-3408
▁作为	-3409
特征	-3410
▁document	-3411
▁bodies	-3412
▁avoid	-3413
出的	-3414
let	-3415
支助	-3416
时代	-3417
海洋	-3418
▁reduce	-3419
▁perfect	-3420
▁这就是	-3421
人和	-3422
▁responsible	-3423
当然	-3424
haps	-3425
▁Our	-3426
▁sym	-3427
▁budget	-3428
istics	-3429
▁effects	-3430
结合	-3431
预测	-3432
▁Group	-3433
lex	-3434
房间	-3435
▁deg	-3436
空气	-3437
▁path	-3438
军事	-3439
清楚	-3440
▁ver	-3441
▁responsibility	-3442
重大	-3443
▁bat	-3444
系列	-3445
变成	-3446
▁American	-3447
患者	-3448
保证	-3449
▁wonder	-3450
事实上	-3451
▁drug	-3452
金融	-3453
▁reading	-3454
工作人员	-3455
的世界	-3456
eric	-3457
▁discover	-3458
罗斯	-3459
而是	-3460
▁Conference	-3461
▁Reg	-3462
常见	-3463
▁reports	-3464
▁contract	-3465
一天	-3466
▁poor	-3467
▁strategies	-3468
▁lack	-3469
sec	-3470
▁woman	-3471
▁application	-3472
▁Tr	-3473
▁overall	-3474
▁ideas	-3475
▁Cl	-3476
▁describ	-3477
▁Q	-3478
▁technical	-3479
的机会	-3480
▁color	-3481
所有这些	-3482
▁citiz	-3483
▁analy	-3484
按照	-3485
的生活	-3486
▁National	-3487
▁response	-3488
▁Dis	-3489
▁created	-3490
acks	-3491
▁visit	-3492
▁twenty	-3493
业务	-3494
put	-3495
▁father	-3496
▁immedi	-3497
ground	-3498
▁fear	-3499
estic	-3500
▁unit	-3501
▁industry	-3502
▁mr	-3503
进步	-3504
创新	-3505
▁session	-3506
▁healthy	-3507
发生了	-3508
▁recent	-3509
▁spread	-3510
▁Where	-3511
伤害	-3512
dom	-3513
▁principles	-3514
道路	-3515
▁traditional	-3516
atures	-3517
aches	-3518
osing	-3519
▁forms	-3520
▁town	-3521
技巧	-3522
▁instead	-3523
▁Z	-3524
▁families	-3525
消除	-3526
▁chem	-3527
arc	-3528
▁People	-3529
▁pret	-3530
▁mis	-3531
▁elements	-3532
ival	-3533
包含	-3534
正式	-3535
▁af	-3536
▁根据	-3537
都在	-3538
inese	-3539
将在	-3540
where	-3541
▁weap	-3542
▁2.	-3543
▁quickly	-3544
▁collabor	-3545
工作的	-3546
▁sus	-3547
▁sustainable	-3548
▁extra	-3549
▁Like	-3550
▁colle	-3551
vention	-3552
立法	-3553
▁demonst	-3554
igen	-3555
快速	-3556
arr	-3557
混合	-3558
▁或者	-3559
▁growing	-3560
▁reform	-3561
▁fell	-3562
nel	-3563
客户	-3564
rast	-3565
科学家	-3566
太阳	-3567
▁Des	-3568
▁writing	-3569
▁schools	-3570
歧视	-3571
多的	-3572
▁Office	-3573
共和国	-3574
采用	-3575
危机	-3576
▁pressure	-3577
▁breat	-3578
视频	-3579
权力	-3580
大量	-3581
▁cred	-3582
▁dang	-3583
特派	-3584
汽车	-3585
▁game	-3586
有什么	-3587
经过	-3588
▁div	-3589
▁God	-3590
ression	-3591
ocr	-3592
▁cool	-3593
森林	-3594
十年	-3595
在这	-3596
▁Pres	-3597
▁received	-3598
ott	-3599
▁terror	-3600
▁earth	-3601
很难	-3602
体验	-3603
▁dou	-3604
reg	-3605
just	-3606
▁shared	-3607
▁就像	-3608
▁sett	-3609
的主要	-3610
父亲	-3611
aily	-3612
phas	-3613
▁aspects	-3614
他人	-3615
isms	-3616
正常	-3617
▁wide	-3618
方向	-3619
▁dive	-3620
▁Your	-3621
值得	-3622
▁tax	-3623
▁port	-3624
▁actions	-3625
▁surround	-3626
▁shap	-3627
名字	-3628
ops	-3629
开放	-3630
思想	-3631
购买	-3632
▁secret	-3633
▁Every	-3634
▁distrib	-3635
我会	-3636
▁Wel	-3637
▁providing	-3638
uing	-3639
ware	-3640
消费	-3641
arily	-3642
▁Hum	-3643
感染	-3644
突然	-3645
用户	-3646
eria	-3647
各地	-3648
orpor	-3649
日本	-3650
▁请	-3651
ustral	-3652
澳大	-3653
现象	-3654
ese	-3655
▁nuclear	-3656
迅速	-3657
澳大利亚	-3658
▁concerned	-3659
▁table	-3660
▁Pal	-3661
▁answer	-3662
▁cou	-3663
▁previous	-3664
▁books	-3665
特派团	-3666
▁carry	-3667
▁Under	-3668
▁conce	-3669
▁oil	-3670
▁compon	-3671
▁planning	-3672
高兴	-3673
互动	-3674
发言	-3675
▁regarding	-3676
小的	-3677
▁dial	-3678
独特的	-3679
ny	-3680
规模	-3681
维护	-3682
ler	-3683
▁Dep	-3684
早期	-3685
▁adapt	-3686
istry	-3687
leb	-3688
50	-3689
▁boy	-3690
iment	-3691
法庭	-3692
▁comprehens	-3693
相关的	-3694
ulate	-3695
在这个	-3696
本身	-3697
其他人	-3698
习惯	-3699
uit	-3700
▁warm	-3701
子的	-3702
▁farm	-3703
▁Som	-3704
也会	-3705
illing	-3706
▁resol	-3707
apan	-3708
▁fish	-3709
比较	-3710
▁companies	-3711
▁temper	-3712
受害	-3713
▁Imagine	-3714
▁displ	-3715
立即	-3716
▁final	-3717
▁ban	-3718
图像	-3719
▁front	-3720
reed	-3721
供应	-3722
▁wrong	-3723
▁chap	-3724
▁kids	-3725
大脑	-3726
监测	-3727
▁feed	-3728
有很多	-3729
▁organization	-3730
记得	-3731
呼吸	-3732
lt	-3733
sych	-3734
优先	-3735
199	-3736
营养	-3737
道德	-3738
农业	-3739
val	-3740
▁pen	-3741
沟通	-3742
▁activity	-3743
▁appreciate	-3744
也不	-3745
▁authorities	-3746
他们在	-3747
痛苦	-3748
▁fif	-3749
元素	-3750
▁interesting	-3751
改进	-3752
协议	-3753
▁lost	-3754
▁happened	-3755
申请	-3756
到达	-3757
▁minim	-3758
iring	-3759
▁determ	-3760
▁office	-3761
▁remains	-3762
▁log	-3763
▁favor	-3764
▁Su	-3765
▁constit	-3766
阿拉	-3767
▁Africa	-3768
▁ap	-3769
▁har	-3770
▁conflict	-3771
的原因	-3772
▁economy	-3773
▁points	-3774
▁fully	-3775
▁americ	-3776
土著	-3777
igenous	-3778
全面	-3779
哪些	-3780
▁framew	-3781
我是	-3782
▁Ag	-3783
兴奋	-3784
▁places	-3785
pid	-3786
一名	-3787
▁sleep	-3788
▁transform	-3789
日常	-3790
to	-3791
我不	-3792
星期	-3793
▁isn	-3794
▁daily	-3795
▁Em	-3796
照片	-3797
▁simply	-3798
▁foreign	-3799
▁determin	-3800
说话	-3801
uth	-3802
▁cat	-3803
▁led	-3804
hem	-3805
▁pretty	-3806
▁lower	-3807
▁range	-3808
▁recommendations	-3809
而言	-3810
▁green	-3811
ighb	-3812
iles	-3813
▁freed	-3814
▁appl	-3815
▁Of	-3816
uations	-3817
▁Yes	-3818
▁Tod	-3819
旅程	-3820
▁concerns	-3821
▁Cour	-3822
支付	-3823
ming	-3824
冒险	-3825
ancing	-3826
▁thr	-3827
▁check	-3828
▁wall	-3829
▁associated	-3830
▁rate	-3831
akes	-3832
▁source	-3833
难以	-3834
的研究	-3835
当局	-3836
▁instru	-3837
ension	-3838
一个人	-3839
▁species	-3840
▁frequ	-3841
认识到	-3842
▁member	-3843
▁nav	-3844
面对	-3845
▁hot	-3846
专注	-3847
hern	-3848
获取	-3849
行业	-3850
颜色	-3851
▁Christ	-3852
▁Special	-3853
▁structure	-3854
▁negot	-3855
astic	-3856
more	-3857
▁当然	-3858
文学	-3859
▁challenge	-3860
从未	-3861
▁rich	-3862
核心	-3863
ex	-3864
▁strengthen	-3865
专门	-3866
▁nut	-3867
时间的	-3868
▁Today	-3869
▁measure	-3870
义务	-3871
▁goes	-3872
ox	-3873
难民	-3874
▁costs	-3875
▁Pol	-3876
新闻	-3877
依赖	-3878
▁diverse	-3879
▁property	-3880
生长	-3881
▁ensuring	-3882
▁saying	-3883
添加	-3884
eper	-3885
amed	-3886
达到	-3887
真实	-3888
明白	-3889
▁foot	-3890
也可以	-3891
了一些	-3892
▁react	-3893
交易	-3894
▁requires	-3895
母亲	-3896
▁concept	-3897
公众	-3898
监督	-3899
▁oblig	-3900
▁operations	-3901
全国	-3902
▁successful	-3903
▁feeling	-3904
verty	-3905
▁poverty	-3906
▁doll	-3907
▁ir	-3908
oor	-3909
▁wild	-3910
建造	-3911
年龄	-3912
▁amaz	-3913
▁mention	-3914
会员	-3915
▁forces	-3916
▁neighb	-3917
国内	-3918
▁dark	-3919
▁effort	-3920
病毒	-3921
▁resolution	-3922
▁dog	-3923
▁relationships	-3924
效果	-3925
▁exactly	-3926
秘书处	-3927
▁purpose	-3928
▁thank	-3929
财务	-3930
▁advent	-3931
▁tur	-3932
使得	-3933
▁yes	-3934
▁eat	-3935
打开	-3936
icated	-3937
里的	-3938
▁existing	-3939
sc	-3940
真正的	-3941
▁European	-3942
谢谢	-3943
等待	-3944
在一个	-3945
▁dream	-3946
▁surface	-3947
af	-3948
整体	-3949
porary	-3950
比赛	-3951
▁religious	-3952
▁crim	-3953
▁Development	-3954
▁sector	-3955
分配	-3956
多少	-3957
症状	-3958
itten	-3959
掌握	-3960
统计	-3961
▁historical	-3962
▁Sy	-3963
更好的	-3964
▁studies	-3965
反映	-3966
国际社会	-3967
▁dead	-3968
▁inj	-3969
▁Welcome	-3970
▁emphas	-3971
▁turned	-3972
提供的	-3973
▁star	-3974
▁below	-3975
used	-3976
视为	-3977
坚持	-3978
▁South	-3979
▁Although	-3980
事物	-3981
▁World	-3982
▁arch	-3983
▁transport	-3984
asons	-3985
▁欢迎	-3986
停止	-3987
▁size	-3988
民族	-3989
force	-3990
▁happy	-3991
▁Rec	-3992
遵循	-3993
▁standards	-3994
攻击	-3995
▁他的	-3996
set	-3997
第一次	-3998
▁8	-3999
▁respond	-4000
▁并	-4001
▁content	-4002
宝贵	-4003
给你	-4004
假设	-4005
▁lif	-4006
▁Chinese	-4007
▁exch	-4008
▁gave	-4009
ull	-4010
▁mand	-4011
ensive	-4012
官员	-4013
▁balance	-4014
▁squ	-4015
美元	-4016
情绪	-4017
污染	-4018
▁comfort	-4019
▁Other	-4020
之外	-4021
扩大	-4022
也有	-4023
处于	-4024
▁host	-4025
巴勒	-4026
▁大	-4027
ously	-4028
▁humans	-4029
拒绝	-4030
itarian	-4031
▁strugg	-4032
塑造	-4033
必要的	-4034
▁link	-4035
ariat	-4036
显然	-4037
看着	-4038
▁seems	-4039
▁powerful	-4040
▁shows	-4041
ze	-4042
保留	-4043
aling	-4044
人在	-4045
▁Her	-4046
▁我的	-4047
▁African	-4048
▁sharing	-4049
巴勒斯坦	-4050
▁thus	-4051
▁enter	-4052
ites	-4053
hib	-4054
▁won	-4055
itable	-4056
▁defin	-4057
▁leading	-4058
▁那么	-4059
▁numbers	-4060
▁Okay	-4061
▁Cont	-4062
etic	-4063
▁是	-4064
操作	-4065
说的	-4066
unch	-4067
▁mic	-4068
▁effectively	-4069
▁II	-4070
▁computer	-4071
他在	-4072
心的	-4073
准确	-4074
ster	-4075
▁App	-4076
het	-4077
standing	-4078
时刻	-4079
有效的	-4080
▁third	-4081
▁exercise	-4082
▁hop	-4083
▁gard	-4084
▁celeb	-4085
表面	-4086
俄罗斯	-4087
▁mental	-4088
▁equip	-4089
高的	-4090
▁嗯	-4091
▁facilit	-4092
会在	-4093
条约	-4094
▁cop	-4095
▁expected	-4096
▁Cons	-4097
▁million	-4098
▁door	-4099
ologies	-4100
使用的	-4101
构成	-4102
▁citizens	-4103
符合	-4104
▁consideration	-4105
带着	-4106
能量	-4107
移民	-4108
▁Their	-4109
▁During	-4110
▁Human	-4111
lling	-4112
▁movement	-4113
评论	-4114
▁contact	-4115
cent	-4116
ogue	-4117
▁First	-4118
▁stre	-4119
▁Organ	-4120
▁weapons	-4121
▁Most	-4122
▁minutes	-4123
▁sources	-4124
单元	-4125
xim	-4126
创作	-4127
位于	-4128
▁Are	-4129
保健	-4130
▁Fr	-4131
不到	-4132
▁active	-4133
发展中国家	-4134
▁article	-4135
文章	-4136
▁discrim	-4137
地点	-4138
▁surv	-4139
▁myself	-4140
▁skin	-4141
有所	-4142
▁wish	-4143
▁lived	-4144
▁attem	-4145
▁belief	-4146
最好的	-4147
000	-4148
▁psych	-4149
计算机	-4150
▁piece	-4151
融入	-4152
的基础	-4153
▁morning	-4154
▁century	-4155
▁incred	-4156
▁consequ	-4157
overy	-4158
▁limited	-4159
▁Japan	-4160
ows	-4161
▁difference	-4162
urch	-4163
种植	-4164
iar	-4165
▁bed	-4166
ifying	-4167
▁interp	-4168
▁America	-4169
▁serve	-4170
相反	-4171
房子	-4172
下降	-4173
详细	-4174
▁designed	-4175
▁Over	-4176
▁capital	-4177
仅仅	-4178
▁altern	-4179
▁noted	-4180
▁identify	-4181
▁wasn	-4182
▁princ	-4183
仔细	-4184
▁Palest	-4185
信任	-4186
▁connection	-4187
补充	-4188
ulated	-4189
▁forest	-4190
趋势	-4191
▁adm	-4192
▁wood	-4193
▁condition	-4194
▁note	-4195
重点	-4196
nda	-4197
▁occup	-4198
得到了	-4199
▁video	-4200
▁Court	-4201
▁filled	-4202
工业	-4203
一直在	-4204
▁circum	-4205
不再	-4206
▁deeper	-4207
▁Man	-4208
rown	-4209
▁purs	-4210
▁tou	-4211
食品	-4212
答案	-4213
▁correct	-4214
inated	-4215
▁alone	-4216
▁shape	-4217
协助	-4218
▁earl	-4219
▁ec	-4220
▁例如	-4221
▁vers	-4222
agn	-4223
▁behavior	-4224
适当的	-4225
▁caused	-4226
用来	-4227
人道	-4228
aught	-4229
▁seemed	-4230
▁Acc	-4231
数学	-4232
▁surpr	-4233
▁Member	-4234
▁weeks	-4235
▁patterns	-4236
▁popular	-4237
▁Further	-4238
ricult	-4239
奇怪	-4240
▁Col	-4241
▁strength	-4242
▁Such	-4243
▁claim	-4244
▁Each	-4245
▁decl	-4246
▁write	-4247
可能性	-4248
▁在这	-4249
▁incorpor	-4250
▁Ke	-4251
▁requirements	-4252
复杂的	-4253
照顾	-4254
▁processes	-4255
▁agreed	-4256
umb	-4257
rams	-4258
abilities	-4259
家人	-4260
ibilities	-4261
▁worked	-4262
▁master	-4263
▁workers	-4264
▁imagine	-4265
这个问题	-4266
▁lessons	-4267
▁President	-4268
▁multiple	-4269
消息	-4270
▁cris	-4271
居民	-4272
icles	-4273
最佳	-4274
▁Oh	-4275
类型的	-4276
▁goals	-4277
▁benefit	-4278
遵守	-4279
▁sn	-4280
对我	-4281
▁Soc	-4282
▁exec	-4283
idents	-4284
▁Here	-4285
▁美国	-4286
▁cancer	-4287
▁bab	-4288
▁initial	-4289
▁scientific	-4290
▁network	-4291
▁swe	-4292
▁attend	-4293
resh	-4294
属于	-4295
ume	-4296
ades	-4297
▁sty	-4298
▁expand	-4299
▁reported	-4300
▁ourselves	-4301
▁und	-4302
▁damage	-4303
高级	-4304
请求	-4305
▁extreme	-4306
▁becomes	-4307
▁flu	-4308
饮食	-4309
有没有	-4310
设立	-4311
团体	-4312
同情	-4313
▁traffic	-4314
▁chapter	-4315
▁这是一个	-4316
fficient	-4317
不足	-4318
▁rule	-4319
做了	-4320
14	-4321
综合	-4322
▁seven	-4323
肯定	-4324
▁territ	-4325
组织的	-4326
▁playing	-4327
态度	-4328
▁affected	-4329
▁divers	-4330
of	-4331
▁eye	-4332
成果	-4333
▁hur	-4334
▁voice	-4335
▁hol	-4336
▁hous	-4337
行的	-4338
ateral	-4339
身上	-4340
▁opin	-4341
elling	-4342
▁domestic	-4343
和社会	-4344
她们	-4345
覆盖	-4346
itude	-4347
生态	-4348
当时	-4349
▁accur	-4350
有了	-4351
▁thir	-4352
▁prepared	-4353
以确保	-4354
▁enhance	-4355
▁cells	-4356
理由	-4357
oration	-4358
做什么	-4359
▁board	-4360
▁awareness	-4361
给予	-4362
比亚	-4363
损失	-4364
▁fundament	-4365
iveness	-4366
的任何	-4367
▁Co	-4368
▁search	-4369
▁summ	-4370
▁plans	-4371
▁phil	-4372
▁bound	-4373
▁produce	-4374
▁scre	-4375
▁ahead	-4376
▁pan	-4377
▁mig	-4378
ought	-4379
▁spo	-4380
呼吁	-4381
ios	-4382
▁Since	-4383
▁knows	-4384
▁li	-4385
▁sea	-4386
▁Per	-4387
▁equipment	-4388
▁Moreover	-4389
克斯	-4390
▁meetings	-4391
我要	-4392
物品	-4393
▁built	-4394
▁让我们	-4395
残疾	-4396
教师	-4397
▁为什么	-4398
庆祝	-4399
▁Ass	-4400
普通	-4401
就业	-4402
重要的是	-4403
▁Earth	-4404
▁professional	-4405
议程	-4406
ps	-4407
▁written	-4408
▁expert	-4409
▁stage	-4410
当前	-4411
atever	-4412
▁lat	-4413
13	-4414
▁vac	-4415
劳动	-4416
▁9	-4417
▁gas	-4418
▁negoti	-4419
有一些	-4420
▁arms	-4421
法国	-4422
土壤	-4423
年代	-4424
未来的	-4425
▁sold	-4426
▁couldn	-4427
▁status	-4428
员工	-4429
怀疑	-4430
▁mount	-4431
▁fem	-4432
▁items	-4433
是由	-4434
gest	-4435
▁except	-4436
▁soil	-4437
▁criminal	-4438
▁included	-4439
皮肤	-4440
▁goal	-4441
恐惧	-4442
vey	-4443
▁vul	-4444
inate	-4445
▁instance	-4446
▁strategy	-4447
▁comprehensive	-4448
▁weight	-4449
犹太	-4450
der	-4451
rab	-4452
气候变化	-4453
▁faith	-4454
▁president	-4455
▁navig	-4456
▁patients	-4457
解决方案	-4458
▁directly	-4459
女人	-4460
每一	-4461
▁optim	-4462
边缘	-4463
▁sug	-4464
办事	-4465
▁equal	-4466
▁choose	-4467
▁influence	-4468
有可能	-4469
▁feet	-4470
记忆	-4471
是因为	-4472
▁beginning	-4473
ounts	-4474
▁king	-4475
系统的	-4476
▁agencies	-4477
▁happens	-4478
致力	-4479
iny	-4480
rog	-4481
elines	-4482
▁encourage	-4483
▁stuff	-4484
▁late	-4485
eter	-4486
只要	-4487
▁Am	-4488
▁ball	-4489
▁participation	-4490
▁它们	-4491
▁chemical	-4492
▁Ph	-4493
▁proceed	-4494
回来	-4495
部的	-4496
手术	-4497
rant	-4498
有限	-4499
▁truth	-4500
icip	-4501
▁ancient	-4502
▁moving	-4503
▁disp	-4504
▁connections	-4505
▁site	-4506
▁gradu	-4507
▁useful	-4508
orks	-4509
保障	-4510
going	-4511
事项	-4512
第一个	-4513
距离	-4514
安全理事会	-4515
▁negative	-4516
ether	-4517
强烈	-4518
投票	-4519
法官	-4520
▁framework	-4521
角度	-4522
物种	-4523
▁clos	-4524
▁impl	-4525
▁univers	-4526
完美	-4527
▁sexual	-4528
▁buy	-4529
▁adopted	-4530
意思	-4531
ley	-4532
年前	-4533
物理	-4534
▁weak	-4535
遇到	-4536
每一个	-4537
▁Ab	-4538
▁就	-4539
▁informed	-4540
考虑到	-4541
决于	-4542
▁interests	-4543
ilateral	-4544
een	-4545
人都	-4546
▁image	-4547
▁以	-4548
取决于	-4549
可以帮助	-4550
紧张	-4551
的发展	-4552
软件	-4553
▁imag	-4554
▁conv	-4555
并没有	-4556
▁total	-4557
▁Was	-4558
▁circumst	-4559
损害	-4560
iance	-4561
▁crisis	-4562
年来	-4563
非法	-4564
▁reasons	-4565
批准	-4566
▁cand	-4567
▁concepts	-4568
▁apply	-4569
▁adjust	-4570
eping	-4571
crip	-4572
正确的	-4573
▁tend	-4574
▁discussion	-4575
加拿	-4576
▁involves	-4577
测量	-4578
的一些	-4579
战斗	-4580
很大	-4581
晚上	-4582
集中	-4583
▁causes	-4584
显著	-4585
▁worth	-4586
的水	-4587
itness	-4588
▁ded	-4589
▁matters	-4590
致力于	-4591
人士	-4592
拉克	-4593
ibly	-4594
izes	-4595
▁middle	-4596
xic	-4597
▁Fe	-4598
德国	-4599
▁perhaps	-4600
▁reve	-4601
之旅	-4602
▁Cong	-4603
iency	-4604
好处	-4605
世界上	-4606
▁mut	-4607
▁passed	-4608
财政	-4609
rary	-4610
办事处	-4611
▁今天	-4612
▁vulner	-4613
vis	-4614
一旦	-4615
▁rout	-4616
会的	-4617
▁situations	-4618
▁promoting	-4619
▁background	-4620
▁seek	-4621
▁easily	-4622
▁pick	-4623
公开	-4624
纽约	-4625
adem	-4626
ager	-4627
▁Department	-4628
▁standard	-4629
最大	-4630
▁loved	-4631
多种	-4632
▁mission	-4633
▁monitoring	-4634
▁15	-4635
▁sympt	-4636
iers	-4637
ervation	-4638
istan	-4639
律师	-4640
▁central	-4641
▁calc	-4642
进行的	-4643
▁carried	-4644
▁perm	-4645
阻止	-4646
▁speed	-4647
▁Finally	-4648
细节	-4649
▁normal	-4650
不得不	-4651
阿拉伯	-4652
▁freedom	-4653
▁proposed	-4654
▁dialogue	-4655
秘密	-4656
禁止	-4657
学院	-4658
▁girls	-4659
形状	-4660
是个	-4661
ties	-4662
达成	-4663
▁anyone	-4664
第三	-4665
▁12	-4666
▁round	-4667
电视	-4668
长的	-4669
▁hosp	-4670
▁primary	-4671
至于	-4672
结论	-4673
▁heat	-4674
在于	-4675
▁medic	-4676
▁investment	-4677
设置	-4678
▁wis	-4679
▁Int	-4680
▁helping	-4681
手段	-4682
▁date	-4683
▁想象一下	-4684
ancy	-4685
▁gets	-4686
的行为	-4687
▁student	-4688
▁den	-4689
▁code	-4690
▁amazing	-4691
▁efficient	-4692
重复	-4693
财产	-4694
相似	-4695
▁mob	-4696
▁base	-4697
▁dyn	-4698
▁fast	-4699
军队	-4700
▁advant	-4701
▁thoughts	-4702
▁lines	-4703
▁remind	-4704
对此	-4705
hips	-4706
至关重要的	-4707
宣布	-4708
▁allowed	-4709
社交	-4710
一位	-4711
▁ult	-4712
▁Gu	-4713
▁undert	-4714
ederal	-4715
公园	-4716
▁pack	-4717
害怕	-4718
一般	-4719
▁procedures	-4720
▁rob	-4721
ma	-4722
inks	-4723
者和	-4724
▁contem	-4725
▁guide	-4726
▁whose	-4727
▁acqu	-4728
▁involve	-4729
▁bill	-4730
▁insights	-4731
多个	-4732
每年	-4733
▁delegation	-4734
▁agreement	-4735
运行	-4736
关切	-4737
▁正如	-4738
释放	-4739
▁humanitarian	-4740
打击	-4741
▁agenda	-4742
▁refer	-4743
视觉	-4744
▁mist	-4745
节目	-4746
可怕	-4747
效率	-4748
强大的	-4749
少年	-4750
最大的	-4751
根本	-4752
▁webs	-4753
▁rapid	-4754
▁discovered	-4755
▁becoming	-4756
▁首先	-4757
lands	-4758
pped	-4759
▁Govern	-4760
▁scientists	-4761
公约	-4762
▁Another	-4763
▁obtain	-4764
amic	-4765
惊讶	-4766
绝对	-4767
▁differences	-4768
▁doctor	-4769
▁Those	-4770
ped	-4771
rial	-4772
武装	-4773
oud	-4774
wh	-4775
▁transfer	-4776
▁planet	-4777
不可能	-4778
▁page	-4779
▁Secret	-4780
就可以	-4781
▁completely	-4782
简单的	-4783
分子	-4784
▁cold	-4785
▁tree	-4786
▁giving	-4787
▁finding	-4788
▁commitment	-4789
长期	-4790
领土	-4791
运作	-4792
失败	-4793
▁trees	-4794
工作组	-4795
交通	-4796
▁cultures	-4797
▁许多	-4798
▁2008	-4799
▁girl	-4800
estern	-4801
▁extend	-4802
▁Union	-4803
留下	-4804
▁supply	-4805
决策	-4806
rest	-4807
▁sud	-4808
▁digital	-4809
▁running	-4810
▁walk	-4811
这次	-4812
妈妈	-4813
▁visual	-4814
▁solution	-4815
保险	-4816
▁changed	-4817
ocratic	-4818
16	-4819
教学	-4820
rating	-4821
▁receive	-4822
地区的	-4823
合理	-4824
▁Before	-4825
teen	-4826
▁section	-4827
▁ang	-4828
表演	-4829
▁advance	-4830
后果	-4831
▁人们	-4832
清洁	-4833
iding	-4834
ains	-4835
▁attack	-4836
omb	-4837
itionally	-4838
▁agricult	-4839
▁Pre	-4840
体育	-4841
▁researc	-4842
▁theory	-4843
基本上	-4844
▁helped	-4845
athy	-4846
▁wat	-4847
▁indigenous	-4848
▁legislation	-4849
▁chance	-4850
▁fresh	-4851
力和	-4852
▁Us	-4853
期望	-4854
不仅仅	-4855
▁birth	-4856
护理	-4857
各个	-4858
文本	-4859
▁gone	-4860
▁looks	-4861
utional	-4862
▁doub	-4863
评价	-4864
温度	-4865
让他们	-4866
▁poll	-4867
iced	-4868
▁solutions	-4869
基因	-4870
▁toward	-4871
▁rates	-4872
amb	-4873
▁original	-4874
▁satis	-4875
专注于	-4876
的一切	-4877
▁Comp	-4878
合同	-4879
会员国	-4880
▁sudden	-4881
将会	-4882
替代	-4883
▁experts	-4884
▁Pr	-4885
另外	-4886
产生的	-4887
足够的	-4888
因为它	-4889
写作	-4890
▁expressed	-4891
▁engage	-4892
热情	-4893
运输	-4894
体系	-4895
▁earlier	-4896
▁predict	-4897
辩论	-4898
人道主义	-4899
▁当你	-4900
olute	-4901
▁substant	-4902
并非	-4903
▁Par	-4904
▁embra	-4905
两种	-4906
提醒	-4907
▁Palestin	-4908
飞机	-4909
▁waste	-4910
▁rein	-4911
邀请	-4912
▁dollars	-4913
▁musc	-4914
▁magn	-4915
了他	-4916
信号	-4917
少数	-4918
de	-4919
感兴趣	-4920
居住	-4921
order	-4922
▁teaching	-4923
方的	-4924
icate	-4925
指南	-4926
消失	-4927
遭受	-4928
出生	-4929
接近	-4930
我们对	-4931
▁resist	-4932
男孩	-4933
erman	-4934
体的	-4935
▁dry	-4936
成年	-4937
▁risks	-4938
深刻	-4939
尽可能	-4940
▁added	-4941
▁nation	-4942
在一	-4943
▁tried	-4944
ructure	-4945
加拿大	-4946
老师	-4947
很少	-4948
mbol	-4949
▁mechanisms	-4950
▁animal	-4951
ended	-4952
▁okay	-4953
生活的	-4954
wise	-4955
▁一些	-4956
给我	-4957
艺术家	-4958
▁official	-4959
喜欢的	-4960
aly	-4961
面前	-4962
▁circumstances	-4963
▁fundamental	-4964
贫困	-4965
▁construct	-4966
▁自	-4967
有效地	-4968
电脑	-4969
▁ep	-4970
准备好	-4971
男人	-4972
hel	-4973
的环境	-4974
cks	-4975
▁和	-4976
antly	-4977
▁teachers	-4978
▁hair	-4979
完整	-4980
▁figure	-4981
▁includes	-4982
▁san	-4983
▁Maybe	-4984
销售	-4985
▁trou	-4986
▁victims	-4987
▁picture	-4988
的关键	-4989
相对	-4990
▁Tw	-4991
构建	-4992
▁mix	-4993
▁欢迎来到	-4994
▁我们的	-4995
ufact	-4996
疼痛	-4997
▁please	-4998
▁determine	-4999
▁functions	-5000
▁huge	-5001
的结果	-5002
风格	-5003
orrow	-5004
的风险	-5005
地说	-5006
▁sam	-5007
▁discrimination	-5008
告诉你	-5009
▁construction	-5010
本书	-5011
▁阿	-5012
下次	-5013
将是	-5014
心脏	-5015
▁societ	-5016
观众	-5017
透明	-5018
国王	-5019
cember	-5020
遗产	-5021
高度	-5022
▁pun	-5023
▁Brit	-5024
所述	-5025
▁generations	-5026
▁although	-5027
▁generally	-5028
▁electric	-5029
inct	-5030
▁qual	-5031
始终	-5032
侵犯	-5033
▁listen	-5034
▁term	-5035
资产	-5036
▁price	-5037
在线	-5038
▁crime	-5039
▁patient	-5040
▁attract	-5041
▁statement	-5042
提出的	-5043
▁pros	-5044
▁Car	-5045
▁vill	-5046
ronic	-5047
▁fat	-5048
icing	-5049
▁programs	-5050
▁我不	-5051
▁Any	-5052
agraph	-5053
▁guidance	-5054
rative	-5055
承担	-5056
密切	-5057
斯特	-5058
的历史	-5059
▁plat	-5060
刑事	-5061
▁tour	-5062
医院	-5063
紧急	-5064
后来	-5065
带来的	-5066
nal	-5067
▁couple	-5068
教堂	-5069
▁vital	-5070
最初	-5071
oh	-5072
▁pub	-5073
团结	-5074
医学	-5075
▁June	-5076
▁symptoms	-5077
委员会的	-5078
肌肉	-5079
彼此	-5080
ustralia	-5081
刚刚	-5082
发生的	-5083
room	-5084
揭示	-5085
▁这一	-5086
▁unl	-5087
美洲	-5088
▁feelings	-5089
ils	-5090
▁而	-5091
▁continues	-5092
议会	-5093
▁你可以	-5094
发布	-5095
▁prison	-5096
▁starting	-5097
关心	-5098
▁funds	-5099
▁2010	-5100
▁cross	-5101
17	-5102
▁所以我	-5103
▁reality	-5104
▁English	-5105
▁complain	-5106
uries	-5107
▁immediately	-5108
▁guess	-5109
▁carefully	-5110
▁3.	-5111
gy	-5112
现有	-5113
▁disapp	-5114
出去	-5115
▁season	-5116
verage	-5117
上述	-5118
外国	-5119
教授	-5120
ching	-5121
履行	-5122
被认为	-5123
cious	-5124
iable	-5125
aign	-5126
urance	-5127
决心	-5128
▁box	-5129
▁structures	-5130
▁Don	-5131
▁bott	-5132
▁小	-5133
▁larger	-5134
▁ongoing	-5135
▁committed	-5136
▁significantly	-5137
的权利	-5138
▁named	-5139
men	-5140
恐怖主义	-5141
▁solid	-5142
严格	-5143
▁Stud	-5144
各项	-5145
▁manner	-5146
▁relative	-5147
▁cyc	-5148
▁center	-5149
世界的	-5150
▁Act	-5151
在我	-5152
▁core	-5153
▁symbol	-5154
oes	-5155
成就	-5156
逐渐	-5157
ada	-5158
▁favorite	-5159
之处	-5160
▁dut	-5161
思维	-5162
bon	-5163
的活动	-5164
▁Russ	-5165
ran	-5166
生存	-5167
▁mentioned	-5168
想过	-5169
cell	-5170
▁Sim	-5171
▁income	-5172
▁series	-5173
▁除了	-5174
arant	-5175
▁features	-5176
ON	-5177
耐心	-5178
个月	-5179
▁commer	-5180
▁nin	-5181
▁currently	-5182
隐藏	-5183
读者	-5184
▁clearly	-5185
ober	-5186
样的	-5187
程度上	-5188
▁machine	-5189
▁incredible	-5190
hab	-5191
ores	-5192
糟糕	-5193
▁Board	-5194
▁joint	-5195
▁Rights	-5196
公正	-5197
放弃	-5198
▁officials	-5199
ooking	-5200
▁virt	-5201
▁researchers	-5202
很重要	-5203
rig	-5204
oad	-5205
罗马	-5206
▁details	-5207
▁Bl	-5208
审计	-5209
上升	-5210
天气	-5211
巨大	-5212
ength	-5213
▁Organization	-5214
▁30	-5215
▁198	-5216
▁task	-5217
▁therap	-5218
智慧	-5219
说过	-5220
▁使用	-5221
▁gold	-5222
▁esc	-5223
▁Art	-5224
▁conclud	-5225
▁repe	-5226
▁attempt	-5227
▁advoc	-5228
▁adequ	-5229
了我	-5230
▁philos	-5231
▁south	-5232
纳入	-5233
确认	-5234
▁2009	-5235
▁presented	-5236
▁conversation	-5237
命令	-5238
▁letter	-5239
大部分	-5240
ellig	-5241
▁despite	-5242
图书	-5243
▁son	-5244
▁volunt	-5245
uary	-5246
▁Serv	-5247
▁limit	-5248
▁upd	-5249
▁applications	-5250
▁也许	-5251
comes	-5252
▁manufact	-5253
ternal	-5254
▁arrange	-5255
▁whatever	-5256
▁一旦	-5257
生活中	-5258
▁discussions	-5259
在我们	-5260
舒适	-5261
讲述	-5262
▁kept	-5263
宇宙	-5264
ha	-5265
▁realized	-5266
▁allowing	-5267
婴儿	-5268
▁infrast	-5269
流动	-5270
看法	-5271
▁prepar	-5272
icit	-5273
▁exchange	-5274
▁gives	-5275
花园	-5276
▁Prog	-5277
▁bank	-5278
▁concer	-5279
▁documents	-5280
racy	-5281
和我	-5282
提升	-5283
▁et	-5284
学会	-5285
▁regions	-5286
▁setting	-5287
ferences	-5288
▁fra	-5289
它是	-5290
▁internal	-5291
utive	-5292
激励	-5293
▁funding	-5294
▁tele	-5295
▁keeping	-5296
转移	-5297
包容	-5298
▁记住	-5299
▁第二	-5300
▁maintaining	-5301
重视	-5302
坐在	-5303
▁options	-5304
▁followed	-5305
▁direction	-5306
yl	-5307
出版	-5308
ales	-5309
▁changing	-5310
▁diet	-5311
优势	-5312
▁quant	-5313
▁bond	-5314
更大的	-5315
一段	-5316
▁severe	-5317
▁guidelines	-5318
ball	-5319
▁联合国	-5320
▁December	-5321
▁17	-5322
eds	-5323
▁reporting	-5324
care	-5325
▁closely	-5326
也没有	-5327
特定的	-5328
imately	-5329
多样性	-5330
熟悉	-5331
▁2005	-5332
▁North	-5333
▁acts	-5334
▁software	-5335
只能	-5336
发展的	-5337
▁Ge	-5338
激发	-5339
▁offers	-5340
▁certainly	-5341
▁dim	-5342
平台	-5343
▁fix	-5344
▁improved	-5345
引发	-5346
▁refuge	-5347
使其	-5348
issions	-5349
论坛	-5350
▁Furthermore	-5351
▁save	-5352
▁interested	-5353
▁identity	-5354
渴望	-5355
受害者	-5356
rupt	-5357
烹饪	-5358
▁用	-5359
伊斯	-5360
▁applied	-5361
你所	-5362
▁technologies	-5363
▁elim	-5364
伟大的	-5365
纪念	-5366
▁meant	-5367
▁objects	-5368
世界各地	-5369
很好的	-5370
▁ing	-5371
你能	-5372
▁weather	-5373
▁autom	-5374
引人	-5375
ogether	-5376
ography	-5377
提出了	-5378
▁reached	-5379
▁US	-5380
▁practical	-5381
伊拉克	-5382
时的	-5383
发表	-5384
▁characters	-5385
rench	-5386
价值观	-5387
▁resource	-5388
可以通过	-5389
期待	-5390
▁waiting	-5391
▁assessment	-5392
60	-5393
rew	-5394
▁campaign	-5395
抓住	-5396
他说	-5397
发达	-5398
▁2006	-5399
uild	-5400
▁diversity	-5401
流行	-5402
▁rock	-5403
即将	-5404
金属	-5405
▁beauty	-5406
满意	-5407
▁played	-5408
IC	-5409
ipl	-5410
书籍	-5411
预期	-5412
▁事实上	-5413
zy	-5414
英语	-5415
告诉我	-5416
▁college	-5417
▁即使	-5418
条款	-5419
更新	-5420
▁appreciation	-5421
the	-5422
性质	-5423
▁profession	-5424
殖民	-5425
还没有	-5426
研究人员	-5427
ptember	-5428
▁message	-5429
vert	-5430
▁pieces	-5431
清晰	-5432
▁advice	-5433
ocks	-5434
▁manage	-5435
▁authority	-5436
▁grand	-5437
▁faced	-5438
良好的	-5439
投入	-5440
外交	-5441
安理	-5442
idge	-5443
▁Mar	-5444
▁sou	-5445
osition	-5446
代码	-5447
▁actual	-5448
▁tast	-5449
▁knowing	-5450
▁anx	-5451
▁aid	-5452
▁minor	-5453
know	-5454
▁transp	-5455
▁businesses	-5456
▁independent	-5457
惊叹	-5458
▁2007	-5459
民间	-5460
▁vot	-5461
宣传	-5462
▁categ	-5463
使我们	-5464
领域的	-5465
▁components	-5466
适用于	-5467
▁gather	-5468
集团	-5469
enn	-5470
▁shown	-5471
指标	-5472
ping	-5473
▁thousands	-5474
宪法	-5475
回家	-5476
▁把	-5477
▁brief	-5478
▁pet	-5479
▁onto	-5480
教训	-5481
▁plays	-5482
▁remained	-5483
并不是	-5484
青少年	-5485
休息	-5486
自动	-5487
儿子	-5488
▁ran	-5489
armament	-5490
▁pul	-5491
▁Governments	-5492
标志	-5493
▁academ	-5494
刺激	-5495
美丽的	-5496
▁infrastructure	-5497
推移	-5498
看到了	-5499
追求	-5500
▁employment	-5501
这意味着	-5502
一份	-5503
以下	-5504
走了	-5505
▁pow	-5506
的不	-5507
协商	-5508
▁sche	-5509
发生在	-5510
ait	-5511
担忧	-5512
货币	-5513
▁temperature	-5514
▁hit	-5515
▁Social	-5516
▁representatives	-5517
▁credit	-5518
vision	-5519
▁以及	-5520
▁initiatives	-5521
▁bul	-5522
▁cam	-5523
▁detect	-5524
▁cry	-5525
▁notice	-5526
函数	-5527
▁presence	-5528
iling	-5529
eur	-5530
是为了	-5531
▁lad	-5532
就能	-5533
是对	-5534
安装	-5535
有利	-5536
▁Arab	-5537
raq	-5538
▁wait	-5539
▁easier	-5540
▁veh	-5541
▁finally	-5542
全部	-5543
智能	-5544
osis	-5545
▁memory	-5546
这些问题	-5547
ixt	-5548
cean	-5549
▁fine	-5550
▁Despite	-5551
ourage	-5552
▁card	-5553
▁continu	-5554
变革	-5555
▁sen	-5556
idden	-5557
▁spent	-5558
▁urban	-5559
的目标	-5560
▁paragraph	-5561
许多人	-5562
▁thirty	-5563
ctober	-5564
做到	-5565
最高	-5566
▁seeing	-5567
▁occas	-5568
▁Fund	-5569
aughter	-5570
对待	-5571
▁leaving	-5572
▁habit	-5573
▁不过	-5574
▁grant	-5575
诊断	-5576
某个	-5577
▁consequences	-5578
为止	-5579
▁equality	-5580
▁paid	-5581
最好	-5582
物的	-5583
▁improving	-5584
相比	-5585
听起来	-5586
百万	-5587
约翰	-5588
▁Sometimes	-5589
平均	-5590
严重的	-5591
我们必须	-5592
单位	-5593
活动的	-5594
▁Women	-5595
aks	-5596
▁ast	-5597
合法	-5598
▁cities	-5599
▁Also	-5600
关闭	-5601
▁goods	-5602
▁labor	-5603
指控	-5604
更容易	-5605
▁older	-5606
动作	-5607
倾向	-5608
围绕	-5609
▁obvious	-5610
▁absolute	-5611
临时	-5612
▁2011	-5613
谈谈	-5614
▁placed	-5615
▁fields	-5616
▁song	-5617
▁focused	-5618
▁armed	-5619
蛋白	-5620
▁还有	-5621
▁religion	-5622
你可能	-5623
▁Inc	-5624
请记住	-5625
▁accord	-5626
农村	-5627
▁supported	-5628
大家	-5629
范围内	-5630
▁argu	-5631
广泛的	-5632
▁马	-5633
年轻人	-5634
▁church	-5635
▁platform	-5636
联网	-5637
▁According	-5638
▁examples	-5639
检测	-5640
▁acknow	-5641
back	-5642
输入	-5643
有一天	-5644
出口	-5645
▁track	-5646
当我们	-5647
报道	-5648
▁asking	-5649
▁三	-5650
演讲	-5651
的法律	-5652
兄弟	-5653
▁July	-5654
▁Med	-5655
▁creation	-5656
▁obst	-5657
▁East	-5658
▁heavy	-5659
▁operation	-5660
▁trib	-5661
阳光	-5662
成立	-5663
▁recognize	-5664
▁topics	-5665
从事	-5666
时间的推移	-5667
▁choice	-5668
▁surrounding	-5669
▁recently	-5670
或其他	-5671
前进	-5672
收到	-5673
所需的	-5674
焦虑	-5675
▁narr	-5676
分布	-5677
▁length	-5678
wide	-5679
▁rise	-5680
▁wife	-5681
▁experiment	-5682
感受	-5683
保存	-5684
生活在	-5685
的想法	-5686
合适	-5687
▁educational	-5688
▁brother	-5689
▁unf	-5690
▁north	-5691
▁notes	-5692
上面	-5693
多么	-5694
伙伴关系	-5695
是指	-5696
带来了	-5697
oples	-5698
日期	-5699
部长	-5700
irect	-5701
duc	-5702
▁summer	-5703
通知	-5704
25	-5705
的其他	-5706
▁variety	-5707
干预	-5708
▁leaves	-5709
▁join	-5710
▁要	-5711
▁suppl	-5712
▁rat	-5713
债务	-5714
▁principle	-5715
▁behavi	-5716
▁perspectives	-5717
▁distribution	-5718
此类	-5719
▁guarant	-5720
学术	-5721
敏感	-5722
▁collaboration	-5723
▁creative	-5724
▁scen	-5725
lled	-5726
pected	-5727
有意义	-5728
ompl	-5729
的努力	-5730
外部	-5731
伊斯兰	-5732
▁addressed	-5733
小说	-5734
▁uses	-5735
▁belong	-5736
▁seeking	-5737
▁16	-5738
▁river	-5739
▁2012	-5740
▁send	-5741
▁raised	-5742
我们有	-5743
▁highlight	-5744
▁被	-5745
ik	-5746
绿色	-5747
▁establishment	-5748
▁landsc	-5749
eed	-5750
双方	-5751
▁Instead	-5752
▁mer	-5753
▁intellig	-5754
广告	-5755
场景	-5756
▁oh	-5757
集体	-5758
vest	-5759
▁graph	-5760
统治	-5761
▁nice	-5762
▁counter	-5763
西班	-5764
▁kinds	-5765
西班牙	-5766
▁rain	-5767
▁prop	-5768
商品	-5769
▁diagn	-5770
来看	-5771
▁目前	-5772
▁command	-5773
会有	-5774
但我	-5775
穿过	-5776
uses	-5777
▁rural	-5778
我们需要	-5779
▁guys	-5780
都能	-5781
▁Ple	-5782
iber	-5783
▁vote	-5784
▁enable	-5785
hest	-5786
一年	-5787
衣服	-5788
裁军	-5789
▁aimed	-5790
▁Palestinian	-5791
▁University	-5792
40	-5793
▁arm	-5794
图书馆	-5795
▁veget	-5796
▁challenging	-5797
亚洲	-5798
▁ble	-5799
▁organized	-5800
▁games	-5801
回应	-5802
基础设施	-5803
▁increasingly	-5804
aled	-5805
理想	-5806
私人	-5807
▁participate	-5808
▁您	-5809
▁happening	-5810
接下来	-5811
夫人	-5812
uting	-5813
ipped	-5814
iosity	-5815
印象	-5816
▁Jan	-5817
很容易	-5818
▁moved	-5819
发出	-5820
▁personnel	-5821
▁store	-5822
▁2004	-5823
▁garden	-5824
这种情况下	-5825
转变	-5826
▁adventure	-5827
局势	-5828
▁expression	-5829
愤怒	-5830
▁studying	-5831
▁witness	-5832
▁September	-5833
声明	-5834
iff	-5835
▁resil	-5836
神秘	-5837
▁wants	-5838
▁Both	-5839
▁Its	-5840
pril	-5841
▁facilities	-5842
riage	-5843
机构的	-5844
▁university	-5845
没有人	-5846
▁Additionally	-5847
▁joy	-5848
rs	-5849
既然	-5850
规范	-5851
ounds	-5852
日益	-5853
▁新	-5854
▁ship	-5855
此同时	-5856
▁而且	-5857
一条	-5858
keeping	-5859
itect	-5860
教会	-5861
▁specifically	-5862
克服	-5863
袭击	-5864
▁addressing	-5865
▁perspective	-5866
次会议	-5867
▁covered	-5868
▁evol	-5869
▁Right	-5870
▁sports	-5871
▁Therefore	-5872
子里	-5873
葡萄	-5874
▁curious	-5875
▁baby	-5876
▁contributions	-5877
届会议	-5878
耶稣	-5879
▁Working	-5880
▁straight	-5881
神奇	-5882
▁herself	-5883
▁images	-5884
▁King	-5885
很高兴	-5886
works	-5887
▁confident	-5888
看到的	-5889
组合	-5890
▁你的	-5891
受伤	-5892
▁总之	-5893
▁vision	-5894
▁smaller	-5895
▁emotions	-5896
▁smooth	-5897
和谐	-5898
▁nine	-5899
ns	-5900
正义	-5901
▁highly	-5902
▁nor	-5903
可靠	-5904
提到	-5905
▁glass	-5906
▁literature	-5907
▁ice	-5908
▁regulations	-5909
过度	-5910
飞行	-5911
违反	-5912
▁produced	-5913
当我	-5914
十分	-5915
▁stronger	-5916
得多	-5917
▁October	-5918
估计	-5919
了对	-5920
▁leadership	-5921
别人	-5922
mon	-5923
科技	-5924
▁breath	-5925
▁views	-5926
▁phone	-5927
对你	-5928
通信	-5929
▁spend	-5930
▁assign	-5931
提议	-5932
▁numerous	-5933
▁alternative	-5934
循环	-5935
▁race	-5936
▁India	-5937
▁Tra	-5938
▁eating	-5939
raft	-5940
▁Thank	-5941
是我们	-5942
▁Sw	-5943
▁War	-5944
斗争	-5945
工人	-5946
细菌	-5947
isc	-5948
▁slight	-5949
▁concent	-5950
邮件	-5951
点击	-5952
▁supporting	-5953
▁Mon	-5954
动态	-5955
▁micro	-5956
▁Health	-5957
▁mouth	-5958
举办	-5959
也可能	-5960
▁Understanding	-5961
▁High	-5962
协会	-5963
▁purch	-5964
应用程序	-5965
扮演	-5966
▁tasks	-5967
enth	-5968
▁Ministry	-5969
你需要	-5970
的社会	-5971
▁sac	-5972
比例	-5973
长时间	-5974
今年	-5975
▁willing	-5976
许可	-5977
▁former	-5978
▁stream	-5979
这将	-5980
▁其中	-5981
orial	-5982
监狱	-5983
cast	-5984
让他	-5985
▁location	-5986
▁spiritual	-5987
否则	-5988
▁所有	-5989
ishing	-5990
▁forth	-5991
你将	-5992
▁commercial	-5993
▁scale	-5994
▁enforce	-5995
tered	-5996
▁blue	-5997
博士	-5998
州的	-5999
这种情况	-6000
▁discussed	-6001
从来	-6002
你必须	-6003
band	-6004
ama	-6005
▁prevention	-6006
▁Gl	-6007
象征	-6008
小心	-6009
osure	-6010
▁teacher	-6011
癌症	-6012
所在	-6013
▁sufficient	-6014
aken	-6015
▁alleg	-6016
格兰	-6017
目的是	-6018
毫无	-6019
▁diseases	-6020
过去的	-6021
返回	-6022
▁fing	-6023
▁train	-6024
除非	-6025
▁stability	-6026
批评	-6027
▁colon	-6028
▁wondered	-6029
CT	-6030
自身	-6031
▁provisions	-6032
以后	-6033
▁transl	-6034
▁March	-6035
组成部分	-6036
行星	-6037
▁listening	-6038
的关系	-6039
不需要	-6040
▁Iraq	-6041
▁representative	-6042
▁wouldn	-6043
▁showed	-6044
rep	-6045
繁荣	-6046
▁如	-6047
梦想	-6048
四个	-6049
▁non	-6050
▁spot	-6051
▁tro	-6052
▁emotional	-6053
▁died	-6054
男性	-6055
▁Keep	-6056
▁destro	-6057
▁appoint	-6058
▁administration	-6059
▁judic	-6060
安理会	-6061
青年	-6062
的力量	-6063
etry	-6064
▁delic	-6065
美味	-6066
▁peoples	-6067
▁mil	-6068
▁sounds	-6069
一只	-6070
登记	-6071
贫穷	-6072
▁careful	-6073
iant	-6074
脆弱	-6075
西亚	-6076
赋予	-6077
▁Please	-6078
对其	-6079
希腊	-6080
▁opinion	-6081
血液	-6082
▁还	-6083
▁hom	-6084
▁wonderful	-6085
安全的	-6086
▁curiosity	-6087
和文化	-6088
▁secure	-6089
▁identified	-6090
黑暗	-6091
▁interpret	-6092
AT	-6093
▁ign	-6094
采取行动	-6095
审判	-6096
基督教	-6097
ocol	-6098
免费	-6099
与其他	-6100
▁每	-6101
▁print	-6102
交谈	-6103
▁advanced	-6104
ugust	-6105
gment	-6106
▁excess	-6107
是不	-6108
的人们	-6109
▁truly	-6110
▁markets	-6111
▁flex	-6112
妻子	-6113
▁recognized	-6114
▁firm	-6115
▁evalu	-6116
真的很	-6117
忽视	-6118
▁transm	-6119
了吗	-6120
erson	-6121
灵活	-6122
▁maxim	-6123
地图	-6124
▁floor	-6125
士兵	-6126
▁subs	-6127
▁street	-6128
锻炼	-6129
▁youth	-6130
▁2003	-6131
▁interview	-6132
▁element	-6133
诉讼	-6134
的基本	-6135
我们会	-6136
睡眠	-6137
忘记	-6138
那种	-6139
itch	-6140
站在	-6141
▁traditions	-6142
幸福	-6143
esty	-6144
▁origin	-6145
▁closer	-6146
▁vast	-6147
▁当我	-6148
没有任何	-6149
▁abuse	-6150
▁infect	-6151
▁Dem	-6152
▁stake	-6153
边界	-6154
存在的	-6155
见解	-6156
视角	-6157
▁input	-6158
原始	-6159
有着	-6160
有趣的	-6161
▁fulf	-6162
▁collection	-6163
物体	-6164
zing	-6165
他们会	-6166
▁homes	-6167
pping	-6168
▁efficiency	-6169
▁reducing	-6170
▁confidence	-6171
▁Secretariat	-6172
去了	-6173
燃料	-6174
列表	-6175
▁motion	-6176
聪明	-6177
彻底	-6178
▁inclus	-6179
▁healthcare	-6180
▁agg	-6181
二十	-6182
▁Ra	-6183
▁coordination	-6184
▁据	-6185
资本	-6186
▁prices	-6187
哲学	-6188
ressed	-6189
额外的	-6190
▁foundation	-6191
▁signs	-6192
asts	-6193
尚未	-6194
▁rene	-6195
▁degree	-6196
▁welcome	-6197
ER	-6198
▁website	-6199
超越	-6200
▁debt	-6201
▁decide	-6202
▁separate	-6203
▁concerning	-6204
造成的	-6205
发现了	-6206
▁procedure	-6207
野生	-6208
▁fit	-6209
作者	-6210
▁island	-6211
▁forget	-6212
正是	-6213
▁decre	-6214
▁connected	-6215
▁everybody	-6216
▁cast	-6217
▁users	-6218
大量的	-6219
▁14	-6220
互联网	-6221
▁fuel	-6222
▁provision	-6223
oly	-6224
▁compared	-6225
▁Dr	-6226
ech	-6227
ses	-6228
▁我是	-6229
埃及	-6230
批判	-6231
com	-6232
▁Yet	-6233
作家	-6234
▁Thus	-6235
过渡	-6236
▁mechanism	-6237
想到	-6238
▁languages	-6239
▁whom	-6240
你对	-6241
▁experienced	-6242
▁evaluation	-6243
▁believed	-6244
▁hyd	-6245
▁其	-6246
▁birds	-6247
▁participants	-6248
所有人	-6249
▁January	-6250
ployment	-6251
大利	-6252
▁Great	-6253
▁models	-6254
rely	-6255
转向	-6256
wing	-6257
▁Nove	-6258
▁sell	-6259
▁priority	-6260
oles	-6261
▁他说	-6262
和国际	-6263
lia	-6264
▁November	-6265
叫做	-6266
▁sand	-6267
▁standing	-6268
▁clar	-6269
▁contemporary	-6270
▁united	-6271
手机	-6272
▁uns	-6273
ingu	-6274
这一切	-6275
▁assum	-6276
orders	-6277
▁Econom	-6278
▁topic	-6279
会发生	-6280
我们已经	-6281
gent	-6282
共享	-6283
▁Count	-6284
▁introduced	-6285
▁architect	-6286
▁average	-6287
女士	-6288
展示了	-6289
▁testing	-6290
▁sad	-6291
▁cong	-6292
usion	-6293
的作用	-6294
动机	-6295
rat	-6296
意大利	-6297
▁Techn	-6298
▁alg	-6299
▁phen	-6300
gn	-6301
▁governments	-6302
▁beliefs	-6303
▁submitted	-6304
▁vulnerable	-6305
倡议	-6306
在其	-6307
▁April	-6308
▁female	-6309
holders	-6310
▁outcomes	-6311
▁majority	-6312
并为	-6313
▁hearing	-6314
我知道	-6315
案例	-6316
随后	-6317
ums	-6318
丰富的	-6319
▁engaging	-6320
▁bran	-6321
实体	-6322
▁distance	-6323
▁approaches	-6324
想知道	-6325
▁eventually	-6326
▁exploration	-6327
早上	-6328
该国	-6329
西哥	-6330
的建议	-6331
装饰	-6332
准则	-6333
ira	-6334
▁instruct	-6335
搜索	-6336
▁owners	-6337
▁conducted	-6338
动力	-6339
▁tom	-6340
formation	-6341
▁charge	-6342
农民	-6343
▁bottom	-6344
ae	-6345
人数	-6346
▁recommended	-6347
▁coast	-6348
也能	-6349
▁dro	-6350
unately	-6351
拥抱	-6352
▁officers	-6353
▁career	-6354
占领	-6355
▁hidden	-6356
良好	-6357
见过	-6358
监管	-6359
▁display	-6360
▁instruments	-6361
氧化	-6362
▁hus	-6363
一场	-6364
墨西哥	-6365
▁lots	-6366
▁egg	-6367
▁gent	-6368
cl	-6369
常常	-6370
打算	-6371
bed	-6372
对我们	-6373
▁mathem	-6374
玛丽	-6375
不太	-6376
poses	-6377
下午	-6378
▁colors	-6379
▁debate	-6380
arters	-6381
当代	-6382
减轻	-6383
▁completed	-6384
▁candid	-6385
▁Program	-6386
▁returned	-6387
▁adequate	-6388
▁util	-6389
统一	-6390
无论是	-6391
▁2002	-6392
分类	-6393
的可能性	-6394
的同时	-6395
修改	-6396
▁terrorism	-6397
▁thanks	-6398
里面	-6399
产生了	-6400
▁external	-6401
▁creativity	-6402
持久	-6403
子上	-6404
粮食	-6405
▁industrial	-6406
的声音	-6407
▁nations	-6408
▁mandate	-6409
▁watching	-6410
mosp	-6411
对象	-6412
essions	-6413
▁medicine	-6414
灵魂	-6415
并将	-6416
▁jobs	-6417
,000	-6418
▁sides	-6419
的数据	-6420
▁engineering	-6421
悲伤	-6422
ensus	-6423
▁forg	-6424
▁station	-6425
充满了	-6426
▁strategic	-6427
▁corpor	-6428
▁philosoph	-6429
▁11	-6430
▁lose	-6431
▁web	-6432
明智	-6433
▁shar	-6434
面临的	-6435
排放	-6436
可能的	-6437
▁reb	-6438
▁Trans	-6439
▁implemented	-6440
▁Commun	-6441
cking	-6442
ES	-6443
▁familiar	-6444
▁roles	-6445
osy	-6446
onom	-6447
▁raise	-6448
orough	-6449
▁facing	-6450
▁fostering	-6451
可能导致	-6452
▁extent	-6453
atically	-6454
▁born	-6455
健康的	-6456
中间	-6457
▁stood	-6458
它在	-6459
等等	-6460
▁enem	-6461
强大	-6462
▁ox	-6463
ishment	-6464
▁pal	-6465
▁devices	-6466
▁Sch	-6467
沿着	-6468
▁federal	-6469
esus	-6470
▁novel	-6471
一级	-6472
▁killed	-6473
祈祷	-6474
▁indeed	-6475
▁causing	-6476
拘留	-6477
▁achieved	-6478
人物	-6479
▁crimes	-6480
▁exciting	-6481
▁Qu	-6482
好像	-6483
▁Child	-6484
▁speaking	-6485
预计	-6486
▁preserv	-6487
ana	-6488
▁records	-6489
nic	-6490
▁reduction	-6491
深入了解	-6492
▁collective	-6493
▁carbon	-6494
▁13	-6495
▁prosec	-6496
海岸	-6497
▁Resear	-6498
在他	-6499
千年	-6500
▁advantage	-6501
▁basically	-6502
老年	-6503
重申	-6504
性能	-6505
▁root	-6506
▁Ob	-6507
▁drive	-6508
▁reference	-6509
▁Two	-6510
▁passion	-6511
▁kill	-6512
hening	-6513
中央	-6514
疫苗	-6515
这类	-6516
我可以	-6517
hy	-6518
▁empathy	-6519
仪式	-6520
▁winter	-6521
了他的	-6522
▁bright	-6523
▁在这方面	-6524
担任	-6525
贷款	-6526
stood	-6527
谢谢你	-6528
▁foods	-6529
▁findings	-6530
的报告	-6531
▁facilitate	-6532
▁purposes	-6533
▁dangerous	-6534
▁slowly	-6535
▁strengthening	-6536
▁determined	-6537
▁remove	-6538
吸收	-6539
pro	-6540
▁renew	-6541
▁Use	-6542
▁involving	-6543
amm	-6544
奴隶	-6545
▁kid	-6546
负担	-6547
鉴于	-6548
▁'	-6549
争议	-6550
常见的	-6551
▁conflicts	-6552
▁cook	-6553
论文	-6554
100	-6555
惩罚	-6556
▁bow	-6557
▁Kore	-6558
▁我要	-6559
亲爱的	-6560
▁emergency	-6561
那时	-6562
▁Together	-6563
▁offered	-6564
虐待	-6565
是我	-6566
下面	-6567
因为他们	-6568
引导	-6569
牙齿	-6570
aur	-6571
采取的	-6572
sets	-6573
rete	-6574
▁atmosp	-6575
▁die	-6576
也在	-6577
uits	-6578
的过程	-6579
地面	-6580
asure	-6581
▁readers	-6582
▁administrative	-6583
圣经	-6584
大型	-6585
授权	-6586
反思	-6587
othes	-6588
形式的	-6589
垃圾	-6590
▁2000	-6591
▁competition	-6592
▁deeply	-6593
▁Inter	-6594
ulating	-6595
▁whenever	-6596
▁investigation	-6597
更为	-6598
黑人	-6599
gypt	-6600
▁user	-6601
▁facts	-6602
▁forced	-6603
▁phenomen	-6604
地理	-6605
▁ju	-6606
▁aren	-6607
ding	-6608
▁install	-6609
▁fort	-6610
倾听	-6611
出现在	-6612
▁Law	-6613
iled	-6614
▁prefer	-6615
oe	-6616
迹象	-6617
▁judge	-6618
tical	-6619
▁政府	-6620
▁accompl	-6621
▁巴	-6622
下一	-6623
算法	-6624
各自	-6625
▁audience	-6626
可能需要	-6627
咖啡	-6628
▁suggested	-6629
不管	-6630
但在	-6631
▁Tur	-6632
IN	-6633
▁somebody	-6634
water	-6635
富汗	-6636
聚集	-6637
▁patience	-6638
▁statements	-6639
编写	-6640
othing	-6641
博物	-6642
实验室	-6643
▁pray	-6644
▁reduced	-6645
不想	-6646
旅游	-6647
扩展	-6648
放松	-6649
▁requested	-6650
相同的	-6651
过来	-6652
▁Aff	-6653
▁comments	-6654
个体	-6655
▁calls	-6656
▁doubt	-6657
ocracy	-6658
▁cultiv	-6659
页面	-6660
▁motiv	-6661
▁illust	-6662
anks	-6663
▁Whe	-6664
▁block	-6665
▁See	-6666
▁clin	-6667
途径	-6668
▁engaged	-6669
会导致	-6670
anging	-6671
▁sick	-6672
场所	-6673
古老	-6674
▁sky	-6675
好奇心	-6676
▁Throughout	-6677
▁improvement	-6678
原子	-6679
▁sevent	-6680
看来	-6681
▁既然	-6682
key	-6683
▁il	-6684
▁dealing	-6685
入胜	-6686
令人惊叹	-6687
70	-6688
同样的	-6689
制订	-6690
和技术	-6691
引人入胜	-6692
▁Sud	-6693
▁mal	-6694
lf	-6695
▁buildings	-6696
自行	-6697
▁accordance	-6698
查看	-6699
单独	-6700
名的	-6701
有关的	-6702
▁prepare	-6703
▁encouraged	-6704
之中	-6705
爆炸	-6706
▁remark	-6707
▁Asia	-6708
▁jur	-6709
▁quiet	-6710
给了	-6711
▁drop	-6712
▁Mal	-6713
▁hospital	-6714
▁pu	-6715
▁drugs	-6716
▁York	-6717
▁chan	-6718
▁consistent	-6719
你想	-6720
▁failure	-6721
▁compass	-6722
捐助	-6723
灾难	-6724
▁West	-6725
▁worksh	-6726
▁fifty	-6727
季节	-6728
ID	-6729
蔬菜	-6730
▁craft	-6731
的联系	-6732
▁touch	-6733
▁implementing	-6734
一些人	-6735
▁worldwide	-6736
句话	-6737
▁speech	-6738
▁negotiations	-6739
pet	-6740
主教	-6741
▁annual	-6742
博物馆	-6743
▁有些	-6744
以至于	-6745
▁Did	-6746
缔约方	-6747
立场	-6748
转化	-6749
你是	-6750
resp	-6751
福利	-6752
▁agreements	-6753
▁husband	-6754
▁Fl	-6755
▁enterpr	-6756
什么是	-6757
▁Sar	-6758
▁strange	-6759
消费者	-6760
▁obligations	-6761
修复	-6762
▁american	-6763
stit	-6764
ipe	-6765
▁pregn	-6766
▁objectives	-6767
ula	-6768
▁foster	-6769
▁estim	-6770
的变化	-6771
启动	-6772
太多	-6773
ensions	-6774
24	-6775
试验	-6776
itely	-6777
▁opened	-6778
▁vib	-6779
受欢迎	-6780
iest	-6781
报告员	-6782
▁fellow	-6783
对吗	-6784
▁style	-6785
▁invent	-6786
▁wealth	-6787
发送	-6788
▁radio	-6789
▁regist	-6790
tenance	-6791
▁compar	-6792
协定	-6793
▁UND	-6794
▁significance	-6795
极端	-6796
▁excell	-6797
▁worry	-6798
在你	-6799
有些人	-6800
▁combat	-6801
遗传	-6802
▁holding	-6803
▁solve	-6804
▁window	-6805
▁din	-6806
▁names	-6807
事业	-6808
几年	-6809
mp	-6810
▁universal	-6811
▁fruit	-6812
▁recovery	-6813
▁shaping	-6814
▁innovation	-6815
▁mur	-6816
最喜欢的	-6817
周期	-6818
树木	-6819
和平与	-6820
▁persist	-6821
▁所以我们	-6822
▁bact	-6823
▁sites	-6824
职责	-6825
itage	-6826
不起	-6827
有害	-6828
outhern	-6829
作为一个	-6830
▁regularly	-6831
orthern	-6832
bits	-6833
zz	-6834
▁很	-6835
做好	-6836
的决定	-6837
及时	-6838
询问	-6839
odes	-6840
而不	-6841
部署	-6842
负责任	-6843
▁deliver	-6844
如果我们	-6845
古代	-6846
▁offices	-6847
ventions	-6848
▁Though	-6849
▁nearly	-6850
下一个	-6851
▁illeg	-6852
候选	-6853
不仅仅是	-6854
▁typically	-6855
rates	-6856
受益	-6857
▁engagement	-6858
和经济	-6859
的孩子	-6860
▁parent	-6861
胜利	-6862
▁networks	-6863
▁populations	-6864
rol	-6865
帮助我们	-6866
▁operational	-6867
coming	-6868
▁explo	-6869
▁haven	-6870
这不是	-6871
▁August	-6872
uilding	-6873
▁artists	-6874
▁choices	-6875
穿着	-6876
▁leads	-6877
顾问	-6878
▁load	-6879
地的	-6880
▁announ	-6881
▁publ	-6882
▁shop	-6883
▁2013	-6884
激动	-6885
while	-6886
▁defend	-6887
是最	-6888
进来	-6889
展开	-6890
陷入	-6891
▁adults	-6892
▁Jew	-6893
不久	-6894
石油	-6895
▁politics	-6896
liament	-6897
▁talked	-6898
▁screen	-6899
▁Parties	-6900
▁perman	-6901
▁missions	-6902
▁Sub	-6903
▁Central	-6904
▁grew	-6905
一家	-6906
▁meaningful	-6907
21	-6908
度的	-6909
▁park	-6910
▁existence	-6911
pper	-6912
不应该	-6913
资助	-6914
▁comfortable	-6915
▁trial	-6916
▁wisdom	-6917
几天	-6918
▁percent	-6919
职位	-6920
▁fant	-6921
oving	-6922
▁encoun	-6923
过的	-6924
▁我知道	-6925
rence	-6926
英雄	-6927
另一种	-6928
▁instrument	-6929
▁extremely	-6930
▁Cal	-6931
ares	-6932
连续	-6933
免疫	-6934
▁formed	-6935
上了	-6936
固定	-6937
▁embark	-6938
勇敢	-6939
▁generation	-6940
文明	-6941
缓解	-6942
▁Second	-6943
▁trafficking	-6944
mar	-6945
发现的	-6946
▁crop	-6947
链接	-6948
▁sweet	-6949
伊朗	-6950
▁humanity	-6951
▁Educ	-6952
▁gentle	-6953
▁sitting	-6954
▁我在	-6955
▁noticed	-6956
▁spring	-6957
▁treaty	-6958
▁destroy	-6959
▁resulting	-6960
随着时间的推移	-6961
有益	-6962
▁guy	-6963
做得	-6964
▁ultimately	-6965
成功的	-6966
▁Ne	-6967
存储	-6968
旋转	-6969
特点	-6970
轻松	-6971
."	-6972
▁understood	-6973
▁tiny	-6974
▁department	-6975
不在	-6976
▁trouble	-6977
患有	-6978
▁其他	-6979
▁release	-6980
orith	-6981
的理解	-6982
女儿	-6983
工资	-6984
他们对	-6985
温暖	-6986
▁opening	-6987
种子	-6988
▁professionals	-6989
住在	-6990
本质	-6991
road	-6992
▁smart	-6993
▁thorough	-6994
▁stock	-6995
▁violations	-6996
适用	-6997
▁christ	-6998
戏剧	-6999
法案	-7000
lim	-7001
▁mel	-7002
▁illness	-7003
住房	-7004
怎样	-7005
叙利亚	-7006
▁Mission	-7007
▁ocean	-7008
指示	-7009
赢得	-7010
▁preparation	-7011
▁Canada	-7012
玻璃	-7013
hors	-7014
让我们一起	-7015
话题	-7016
▁housing	-7017
iday	-7018
▁Using	-7019
▁mo	-7020
hol	-7021
找到了	-7022
行为的	-7023
▁他们的	-7024
区别	-7025
apers	-7026
▁dram	-7027
判断	-7028
▁located	-7029
ivery	-7030
▁Div	-7031
婚姻	-7032
▁courts	-7033
车辆	-7034
娱乐	-7035
▁sugar	-7036
病人	-7037
术语	-7038
erb	-7039
在这些	-7040
aint	-7041
▁Cur	-7042
▁restrict	-7043
▁alloc	-7044
iration	-7045
提案	-7046
▁unex	-7047
▁proposal	-7048
更大	-7049
慢慢	-7050
的安全	-7051
▁nutr	-7052
历史上	-7053
标签	-7054
▁formal	-7055
▁gun	-7056
▁liqu	-7057
▁walking	-7058
sect	-7059
革命	-7060
ermany	-7061
▁objective	-7062
警告	-7063
▁movements	-7064
▁device	-7065
ghan	-7066
ded	-7067
下来的	-7068
▁feels	-7069
▁governance	-7070
▁mutual	-7071
▁不要	-7072
▁Prot	-7073
的不同	-7074
▁depending	-7075
▁Bra	-7076
bru	-7077
疗法	-7078
▁Whether	-7079
▁output	-7080
▁evening	-7081
图片	-7082
你可能会	-7083
▁closed	-7084
▁Bel	-7085
rations	-7086
▁creatures	-7087
▁我会	-7088
感激	-7089
▁der	-7090
agers	-7091
▁claims	-7092
▁hero	-7093
和不	-7094
对这些	-7095
▁pictures	-7096
▁barri	-7097
▁lesson	-7098
▁resilience	-7099
的需求	-7100
大小	-7101
▁mas	-7102
多边	-7103
▁afford	-7104
▁feature	-7105
▁taught	-7106
注意力	-7107
运动员	-7108
▁bear	-7109
混乱	-7110
版本	-7111
丈夫	-7112
倡导	-7113
▁tests	-7114
的信	-7115
运用	-7116
发明	-7117
成员国	-7118
▁mathemat	-7119
▁described	-7120
的概念	-7121
▁obstac	-7122
被视为	-7123
潜力	-7124
▁2001	-7125
▁vary	-7126
财富	-7127
bruary	-7128
含有	-7129
▁TH	-7130
ij	-7131
▁peaceful	-7132
同一	-7133
不过	-7134
▁labour	-7135
环境中	-7136
▁amb	-7137
王国	-7138
ague	-7139
oral	-7140
和你	-7141
▁characteristics	-7142
▁properly	-7143
它会	-7144
工程师	-7145
项目的	-7146
▁pus	-7147
加以	-7148
▁realize	-7149
▁etc	-7150
交换	-7151
问题是	-7152
▁depart	-7153
自我	-7154
还在	-7155
影响的	-7156
▁jump	-7157
参考	-7158
▁Lib	-7159
类别	-7160
▁ensures	-7161
▁processing	-7162
▁properties	-7163
▁marriage	-7164
成分	-7165
▁moments	-7166
要么	-7167
ky	-7168
岩石	-7169
其它	-7170
anc	-7171
hered	-7172
▁territory	-7173
气体	-7174
▁distinct	-7175
iences	-7176
下去	-7177
若干	-7178
▁relating	-7179
▁algorith	-7180
表现出	-7181
rants	-7182
▁maintenance	-7183
▁factor	-7184
声称	-7185
▁mine	-7186
▁marg	-7187
▁vent	-7188
▁schol	-7189
▁army	-7190
▁drawing	-7191
的经济	-7192
▁Dec	-7193
▁到	-7194
▁insurance	-7195
漂亮	-7196
▁cooper	-7197
研讨	-7198
▁valid	-7199
轻轻	-7200
▁showing	-7201
它们在	-7202
因为我	-7203
前往	-7204
批判性	-7205
的一种	-7206
阿富汗	-7207
▁reserv	-7208
▁enforcement	-7209
数据库	-7210
iverse	-7211
▁evolution	-7212
▁bag	-7213
ellect	-7214
▁catch	-7215
有权	-7216
▁二	-7217
可持续发展	-7218
积极的	-7219
▁transition	-7220
▁Take	-7221
友谊	-7222
度和	-7223
▁served	-7224
▁possess	-7225
上诉	-7226
urally	-7227
▁Next	-7228
▁compens	-7229
自信	-7230
▁Last	-7231
yp	-7232
回顾	-7233
▁conscious	-7234
决议草案	-7235
▁vari	-7236
深入探讨	-7237
▁tit	-7238
传达	-7239
▁Make	-7240
各方	-7241
增加了	-7242
fare	-7243
未能	-7244
sequently	-7245
▁attacks	-7246
靠近	-7247
你已经	-7248
的内容	-7249
▁国际	-7250
▁arrest	-7251
的支持	-7252
▁当我们	-7253
出于	-7254
▁Middle	-7255
▁putting	-7256
▁intended	-7257
ossible	-7258
的前	-7259
▁juris	-7260
osystem	-7261
▁param	-7262
有必要	-7263
orry	-7264
oses	-7265
▁gar	-7266
▁sav	-7267
特别报告员	-7268
▁articles	-7269
▁你有没有	-7270
▁suddenly	-7271
▁British	-7272
▁map	-7273
领导人	-7274
▁appeal	-7275
enced	-7276
天然	-7277
干燥	-7278
ille	-7279
▁figures	-7280
eal	-7281
▁在这个	-7282
年度	-7283
rote	-7284
▁tiss	-7285
▁teeth	-7286
▁wear	-7287
▁delivery	-7288
相应	-7289
▁rot	-7290
另一方面	-7291
赔偿	-7292
▁comment	-7293
尤其是在	-7294
▁Christian	-7295
iot	-7296
▁Represent	-7297
IS	-7298
nect	-7299
了这些	-7300
▁crow	-7301
阻碍	-7302
right	-7303
修正	-7304
清单	-7305
我是说	-7306
屏幕	-7307
▁millions	-7308
发达国家	-7309
▁frequently	-7310
▁可	-7311
永远不会	-7312
▁effectiveness	-7313
关节	-7314
规定的	-7315
苏丹	-7316
很大的	-7317
标记	-7318
▁Pan	-7319
▁同时	-7320
一系列	-7321
红色	-7322
举行的	-7323
▁issued	-7324
实质	-7325
▁integration	-7326
亚历	-7327
资格	-7328
▁Economic	-7329
服务的	-7330
▁treated	-7331
▁Only	-7332
▁Never	-7333
传统的	-7334
▁technique	-7335
▁Mean	-7336
▁contains	-7337
额外	-7338
▁同样	-7339
▁flowers	-7340
▁datab	-7341
河流	-7342
osen	-7343
▁decades	-7344
将继续	-7345
志愿	-7346
引入	-7347
▁cooking	-7348
▁Think	-7349
▁environments	-7350
后面	-7351
▁fighting	-7352
▁Will	-7353
头发	-7354
建立一个	-7355
▁arrived	-7356
▁journal	-7357
nes	-7358
isters	-7359
单词	-7360
▁absor	-7361
▁prote	-7362
▁moral	-7363
▁innovative	-7364
▁Fore	-7365
▁extraord	-7366
▁therapy	-7367
跟踪	-7368
他是	-7369
▁units	-7370
私营	-7371
纤维	-7372
▁difficulties	-7373
取得了	-7374
商店	-7375
▁flav	-7376
sh	-7377
▁adding	-7378
▁option	-7379
翻译	-7380
▁west	-7381
▁ingred	-7382
iary	-7383
▁employees	-7384
成的	-7385
▁threats	-7386
在家	-7387
▁refers	-7388
▁vacc	-7389
的主	-7390
▁你会	-7391
非常重要	-7392
▁dear	-7393
▁layer	-7394
ingly	-7395
▁Gree	-7396
▁discipl	-7397
身边	-7398
icks	-7399
享有	-7400
quarters	-7401
itig	-7402
平民	-7403
质疑	-7404
对他	-7405
▁film	-7406
▁positions	-7407
▁4.	-7408
▁apart	-7409
▁outcome	-7410
▁snow	-7411
分解	-7412
▁battle	-7413
我国	-7414
做的事情	-7415
远离	-7416
▁committee	-7417
了很多	-7418
▁conference	-7419
反馈	-7420
艰难	-7421
▁burn	-7422
▁increases	-7423
▁Aut	-7424
antic	-7425
▁Sam	-7426
▁Sum	-7427
▁stakeholders	-7428
▁最	-7429
▁conversations	-7430
见的	-7431
有一种	-7432
暴露	-7433
rade	-7434
和他	-7435
公司的	-7436
ception	-7437
▁skill	-7438
▁determination	-7439
▁suffering	-7440
▁practicing	-7441
起诉	-7442
鸟类	-7443
我们所	-7444
路线	-7445
幸运	-7446
▁intelligence	-7447
▁protecting	-7448
▁relax	-7449
航空	-7450
▁famous	-7451
▁managed	-7452
账户	-7453
▁compassion	-7454
▁teams	-7455
▁successfully	-7456
▁Consider	-7457
▁storm	-7458
▁Exper	-7459
神圣	-7460
被告	-7461
▁Hist	-7462
li	-7463
有机会	-7464
两年	-7465
▁paint	-7466
▁sets	-7467
互相	-7468
enses	-7469
▁Rapport	-7470
▁mort	-7471
▁让	-7472
政府的	-7473
▁navigate	-7474
▁中国	-7475
▁trends	-7476
发生的事情	-7477
▁immig	-7478
编辑	-7479
▁helpful	-7480
▁highest	-7481
重建	-7482
▁descrip	-7483
岛屿	-7484
观看	-7485
▁Rel	-7486
非凡	-7487
▁camer	-7488
诸如	-7489
▁integrated	-7490
ails	-7491
▁Nor	-7492
▁ecosystem	-7493
迷人	-7494
事故	-7495
▁Sm	-7496
城镇	-7497
平静	-7498
▁align	-7499
▁miles	-7500
每次	-7501
子和	-7502
定居	-7503
ours	-7504
br	-7505
超级	-7506
▁click	-7507
▁communicate	-7508
▁actively	-7509
因为它们	-7510
▁managing	-7511
名单	-7512
hetic	-7513
困惑	-7514
足球	-7515
ressive	-7516
▁assets	-7517
民间社会	-7518
管制	-7519
推荐	-7520
▁Get	-7521
帝国	-7522
▁sessions	-7523
帮助你	-7524
aid	-7525
▁spect	-7526
▁letters	-7527
respond	-7528
▁Good	-7529
文书	-7530
工艺	-7531
原理	-7532
▁lic	-7533
▁terr	-7534
▁spaces	-7535
好了	-7536
▁monitor	-7537
英尺	-7538
▁remaining	-7539
▁disarmament	-7540
为此	-7541
想想	-7542
现场	-7543
▁stim	-7544
网上	-7545
会儿	-7546
祝你	-7547
▁horse	-7548
临床	-7549
rical	-7550
议员	-7551
对我来说	-7552
ruption	-7553
▁由	-7554
▁stated	-7555
fortunately	-7556
那是	-7557
脂肪	-7558
▁developments	-7559
▁diss	-7560
EN	-7561
但它	-7562
▁布	-7563
▁excited	-7564
模拟	-7565
▁democracy	-7566
▁starts	-7567
▁chair	-7568
检察	-7569
craft	-7570
▁drink	-7571
▁intellect	-7572
踏上	-7573
▁anne	-7574
▁impacts	-7575
ero	-7576
▁unless	-7577
▁Sarah	-7578
▁concrete	-7579
▁tail	-7580
大规模	-7581
▁Isl	-7582
▁capable	-7583
▁consumption	-7584
▁sight	-7585
终于	-7586
▁ethnic	-7587
逻辑	-7588
gery	-7589
▁不管	-7590
bing	-7591
▁authors	-7592
过了	-7593
阿尔	-7594
▁wrote	-7595
的感觉	-7596
▁file	-7597
▁societies	-7598
▁mid	-7599
南部	-7600
高效	-7601
itute	-7602
▁election	-7603
▁impossible	-7604
▁achieving	-7605
▁simpl	-7606
place	-7607
是通过	-7608
▁broken	-7609
栖息	-7610
融合	-7611
▁forty	-7612
▁elections	-7613
▁component	-7614
玩具	-7615
着迷	-7616
选项	-7617
▁February	-7618
▁customers	-7619
法规	-7620
任何人	-7621
获得了	-7622
采购	-7623
▁destruction	-7624
对抗	-7625
▁disabilities	-7626
rian	-7627
inations	-7628
杰克	-7629
▁survey	-7630
▁operating	-7631
OR	-7632
经营	-7633
▁thick	-7634
▁possibility	-7635
疑问	-7636
技术的	-7637
▁largest	-7638
house	-7639
▁recognition	-7640
这件事	-7641
▁neighbor	-7642
▁academic	-7643
签署	-7644
▁band	-7645
在哪里	-7646
arter	-7647
orage	-7648
多元	-7649
十二	-7650
▁你们	-7651
举措	-7652
于是	-7653
收藏	-7654
▁detailed	-7655
虚拟	-7656
伦理	-7657
带到	-7658
▁Ter	-7659
中最	-7660
▁messages	-7661
▁clim	-7662
成为一个	-7663
▁bringing	-7664
▁Rapporteur	-7665
协作	-7666
罪行	-7667
百分	-7668
精确	-7669
▁brings	-7670
▁empower	-7671
anda	-7672
马里	-7673
▁无论	-7674
健康和	-7675
转换	-7676
▁Public	-7677
善良	-7678
宠物	-7679
▁这样	-7680
▁transact	-7681
特性	-7682
▁arrangements	-7683
▁pra	-7684
专员	-7685
▁throw	-7686
免受	-7687
西方	-7688
board	-7689
▁doctors	-7690
加剧	-7691
宝贵的	-7692
eless	-7693
星球	-7694
▁worse	-7695
▁duty	-7696
roud	-7697
▁Peace	-7698
▁Red	-7699
inc	-7700
水果	-7701
注册	-7702
以为	-7703
resents	-7704
▁flood	-7705
▁Affairs	-7706
倾向于	-7707
udd	-7708
▁solar	-7709
▁Head	-7710
▁correspond	-7711
了这个	-7712
abet	-7713
2000	-7714
推进	-7715
▁failed	-7716
▁heritage	-7717
ilarly	-7718
▁stopped	-7719
塑料	-7720
的部分	-7721
容器	-7722
推广	-7723
职能	-7724
ship	-7725
▁atmosphere	-7726
治理	-7727
▁X	-7728
试着	-7729
▁adoption	-7730
生的	-7731
沮丧	-7732
地下	-7733
▁Afghan	-7734
▁Look	-7735
的学生	-7736
▁peacekeeping	-7737
在本	-7738
符号	-7739
微笑	-7740
▁phase	-7741
贩运	-7742
▁sole	-7743
▁Expl	-7744
rees	-7745
欧盟	-7746
发展目标	-7747
▁anxiety	-7748
总体	-7749
icians	-7750
医疗保健	-7751
起源	-7752
▁mainly	-7753
疯狂	-7754
▁internet	-7755
▁contribution	-7756
eters	-7757
▁implications	-7758
ends	-7759
▁turns	-7760
▁此	-7761
▁shel	-7762
acing	-7763
听说过	-7764
cohol	-7765
▁Egypt	-7766
工厂	-7767
的国际	-7768
▁Mus	-7769
▁resistance	-7770
▁absolutely	-7771
▁immediate	-7772
▁flat	-7773
▁observed	-7774
▁grab	-7775
▁considering	-7776
几个月	-7777
爆发	-7778
▁shot	-7779
▁ethical	-7780
毒品	-7781
▁rul	-7782
得以	-7783
取得的	-7784
名叫	-7785
▁iron	-7786
▁conven	-7787
富有	-7788
olic	-7789
▁voc	-7790
▁Information	-7791
古巴	-7792
▁independence	-7793
结婚	-7794
新鲜	-7795
英里	-7796
电力	-7797
迷人的	-7798
▁tex	-7799
官方	-7800
▁accurate	-7801
▁represents	-7802
▁cycle	-7803
▁emerging	-7804
描绘	-7805
支出	-7806
▁我希望	-7807
▁answers	-7808
AD	-7809
▁国家	-7810
▁acknowled	-7811
▁像	-7812
▁metal	-7813
▁banks	-7814
▁possibilities	-7815
摆脱	-7816
▁substantial	-7817
生态系统	-7818
OU	-7819
uls	-7820
▁extraordinary	-7821
学科	-7822
他们可以	-7823
▁representation	-7824
美国人	-7825
参观	-7826
里亚	-7827
▁这里	-7828
umn	-7829
你有	-7830
▁faster	-7831
▁relatively	-7832
出现了	-7833
▁promotion	-7834
总部	-7835
面包	-7836
有用	-7837
爱好	-7838
差距	-7839
紧密	-7840
▁reject	-7841
▁democratic	-7842
▁handle	-7843
▁explained	-7844
建立了	-7845
▁Research	-7846
▁encourages	-7847
ellow	-7848
运营	-7849
ris	-7850
▁lawy	-7851
走向	-7852
随时	-7853
▁beings	-7854
rity	-7855
▁谁	-7856
▁spoke	-7857
认可	-7858
▁universe	-7859
来了	-7860
iforn	-7861
▁widely	-7862
指定	-7863
申诉	-7864
我所	-7865
stream	-7866
作物	-7867
维持和平	-7868
太空	-7869
天空	-7870
部落	-7871
▁recru	-7872
▁replace	-7873
大陆	-7874
▁soldiers	-7875
▁perpet	-7876
优化	-7877
色彩	-7878
▁examine	-7879
用途	-7880
▁Does	-7881
▁continuing	-7882
研讨会	-7883
认真	-7884
unal	-7885
会议上	-7886
尔兰	-7887
▁那些	-7888
▁relief	-7889
发现自己	-7890
▁incorporating	-7891
呈现	-7892
▁四	-7893
无数	-7894
▁outl	-7895
认知	-7896
转化为	-7897
实行	-7898
IT	-7899
▁judicial	-7900
▁tradition	-7901
iture	-7902
传递	-7903
80	-7904
▁sales	-7905
▁accepted	-7906
raid	-7907
▁Israeli	-7908
▁slightly	-7909
但他	-7910
▁infection	-7911
涵盖	-7912
▁otherwise	-7913
mas	-7914
▁exposure	-7915
这两个	-7916
▁minds	-7917
▁struggle	-7918
基金会	-7919
▁exhib	-7920
▁explan	-7921
▁myster	-7922
摄影	-7923
▁delay	-7924
样本	-7925
成熟	-7926
▁Dist	-7927
▁agricultural	-7928
政策和	-7929
打电话	-7930
▁Tim	-7931
▁nerv	-7932
itc	-7933
管辖	-7934
▁Spe	-7935
▁cert	-7936
突出	-7937
ipping	-7938
▁appears	-7939
▁Com	-7940
▁非常	-7941
的技术	-7942
一部分	-7943
ocked	-7944
▁scene	-7945
▁Would	-7946
发生了什么	-7947
▁tow	-7948
▁Chair	-7949
▁planned	-7950
▁constant	-7951
放置	-7952
我们要	-7953
层面	-7954
▁household	-7955
任命	-7956
▁Gra	-7957
▁Lear	-7958
▁edge	-7959
和保护	-7960
▁Joh	-7961
▁lord	-7962
还要	-7963
▁ves	-7964
这是一种	-7965
▁Direct	-7966
▁driving	-7967
香港	-7968
个性	-7969
ias	-7970
▁shad	-7971
回忆	-7972
敦促	-7973
不确定	-7974
▁但是我	-7975
尔的	-7976
▁Mexic	-7977
乐趣	-7978
▁none	-7979
▁isol	-7980
▁Service	-7981
▁bird	-7982
外面	-7983
▁overcome	-7984
▁institutional	-7985
负面	-7986
笔记	-7987
▁两	-7988
▁contained	-7989
▁native	-7990
依然	-7991
rets	-7992
▁scope	-7993
自愿	-7994
▁ton	-7995
所以我	-7996
▁lies	-7997
▁offering	-7998
▁narratives	-7999
您可以	-8000
▁expertise	-8001
爱尔兰	-8002
▁permanent	-8003
time	-8004
▁themes	-8005
bal	-8006
▁chosen	-8007
一件	-8008
仍在	-8009
的任务	-8010
回报	-8011
▁只有	-8012
▁wise	-8013
▁向	-8014
▁大多数	-8015
▁resolutions	-8016
▁proposals	-8017
有价值	-8018
▁unexpected	-8019
机械	-8020
▁dedicated	-8021
▁critic	-8022
▁imper	-8023
毕业	-8024
▁Australia	-8025
和对	-8026
▁illegal	-8027
31	-8028
▁entirely	-8029
▁copy	-8030
家族	-8031
里斯	-8032
共同努力	-8033
俱乐	-8034
▁tort	-8035
的手	-8036
▁proud	-8037
raw	-8038
▁dri	-8039
打破	-8040
诗歌	-8041
▁boys	-8042
去年	-8043
ius	-8044
体现	-8045
偏见	-8046
▁grass	-8047
▁self	-8048
▁approved	-8049
▁rapidly	-8050
hus	-8051
▁安	-8052
引起的	-8053
▁soul	-8054
gen	-8055
▁Programme	-8056
他会	-8057
2008	-8058
或许	-8059
▁caught	-8060
作业	-8061
国会	-8062
▁我不知道	-8063
▁players	-8064
异常	-8065
ION	-8066
制的	-8067
▁depth	-8068
分离	-8069
ata	-8070
▁danger	-8071
▁这项	-8072
▁telling	-8073
▁多	-8074
▁landscape	-8075
人群	-8076
灾害	-8077
ifornia	-8078
▁inspect	-8079
▁potentially	-8080
一张	-8081
▁stick	-8082
伦敦	-8083
▁greatest	-8084
▁prem	-8085
▁corner	-8086
▁sequ	-8087
▁border	-8088
▁jurisd	-8089
▁intric	-8090
土耳	-8091
今后	-8092
▁profound	-8093
▁removed	-8094
▁fiction	-8095
▁Bank	-8096
▁captiv	-8097
▁amounts	-8098
▁supposed	-8099
学者	-8100
成年人	-8101
▁dipl	-8102
▁Russian	-8103
▁spending	-8104
▁village	-8105
▁fill	-8106
▁prompt	-8107
复杂性	-8108
人工	-8109
不安	-8110
土耳其	-8111
▁occurs	-8112
给他	-8113
▁School	-8114
▁partner	-8115
▁minute	-8116
herent	-8117
▁Prov	-8118
▁ninet	-8119
妇女和	-8120
▁Ac	-8121
▁任何	-8122
在美国	-8123
▁turning	-8124
这可能	-8125
变得更加	-8126
开心	-8127
康复	-8128
穿越	-8129
设定	-8130
▁discovery	-8131
▁delegations	-8132
同事	-8133
▁afraid	-8134
▁desire	-8135
▁male	-8136
参数	-8137
▁与此同时	-8138
arrow	-8139
奇迹	-8140
改变了	-8141
bre	-8142
▁released	-8143
有任何	-8144
▁occurred	-8145
load	-8146
▁fle	-8147
amics	-8148
华盛	-8149
▁Trib	-8150
tery	-8151
egu	-8152
为我们	-8153
▁published	-8154
给我们	-8155
华盛顿	-8156
iments	-8157
▁taste	-8158
找出	-8159
入侵	-8160
▁hall	-8161
▁expectations	-8162
农场	-8163
▁hyp	-8164
创造力	-8165
参与者	-8166
▁Ben	-8167
在此	-8168
抑郁	-8169
▁研究	-8170
▁Support	-8171
会议的	-8172
▁trig	-8173
▁prev	-8174
▁farmers	-8175
▁defined	-8176
ara	-8177
▁fab	-8178
▁happiness	-8179
▁injury	-8180
▁disaster	-8181
使他们	-8182
acking	-8183
▁divid	-8184
▁French	-8185
和他的	-8186
▁suc	-8187
▁ment	-8188
文字	-8189
男女	-8190
▁25	-8191
在这种情况下	-8192
▁amend	-8193
▁secretariat	-8194
▁walls	-8195
您将	-8196
▁Eff	-8197
▁Centre	-8198
衡量	-8199
但他们	-8200
▁satisf	-8201
对他们	-8202
▁THE	-8203
▁sectors	-8204
▁storage	-8205
oma	-8206
life	-8207
▁Management	-8208
nown	-8209
▁recon	-8210
rain	-8211
威尔	-8212
组织和	-8213
指的是	-8214
▁refugees	-8215
▁hundreds	-8216
▁Convention	-8217
▁vessel	-8218
▁excellent	-8219
予以	-8220
ym	-8221
▁du	-8222
那就是	-8223
隔离	-8224
▁multilateral	-8225
▁Leg	-8226
告诉我们	-8227
▁stone	-8228
▁conservation	-8229
▁classes	-8230
文化和	-8231
ok	-8232
▁broader	-8233
干扰	-8234
▁hunt	-8235
▁另外	-8236
出售	-8237
沉默	-8238
ugh	-8239
▁requests	-8240
▁od	-8241
野生动物	-8242
▁coff	-8243
▁accident	-8244
考试	-8245
▁necessarily	-8246
▁feedback	-8247
▁occasion	-8248
麻烦	-8249
anged	-8250
燃烧	-8251
主管	-8252
巴嫩	-8253
pends	-8254
▁transportation	-8255
礼物	-8256
董事会	-8257
▁undertaken	-8258
▁他在	-8259
arency	-8260
▁via	-8261
▁fert	-8262
ria	-8263
探险	-8264
都可以	-8265
含义	-8266
路上	-8267
黎巴嫩	-8268
▁stret	-8269
AR	-8270
▁appearance	-8271
irmed	-8272
储存	-8273
不应	-8274
▁daughter	-8275
▁luck	-8276
腐败	-8277
有许多	-8278
▁Minister	-8279
样子	-8280
useum	-8281
拉斯	-8282
▁stars	-8283
▁trip	-8284
▁也	-8285
▁electricity	-8286
有机	-8287
遗憾	-8288
▁tun	-8289
机器人	-8290
ica	-8291
我说	-8292
国际法	-8293
▁encounter	-8294
▁periods	-8295
AL	-8296
莎拉	-8297
▁adult	-8298
22	-8299
▁linked	-8300
▁consensus	-8301
谈话	-8302
▁pollution	-8303
学的	-8304
2010	-8305
你就	-8306
▁boundaries	-8307
导致了	-8308
▁club	-8309
争论	-8310
ino	-8311
▁reven	-8312
糖尿	-8313
▁prohib	-8314
日子	-8315
石头	-8316
窗户	-8317
rel	-8318
潜在的	-8319
还可以	-8320
▁Administ	-8321
化和	-8322
▁tap	-8323
▁unable	-8324
acific	-8325
▁technological	-8326
istical	-8327
漫画	-8328
驾驶	-8329
地震	-8330
怀孕	-8331
▁UNDP	-8332
ta	-8333
▁sensitive	-8334
是非常	-8335
答复	-8336
▁regul	-8337
▁remed	-8338
▁197	-8339
▁ended	-8340
▁succeed	-8341
维亚	-8342
▁blow	-8343
▁roll	-8344
这场	-8345
缺陷	-8346
▁Ins	-8347
糖尿病	-8348
▁advis	-8349
▁strict	-8350
图案	-8351
小姐	-8352
指挥	-8353
▁accountability	-8354
频率	-8355
是谁	-8356
不利	-8357
ifications	-8358
对手	-8359
▁shoot	-8360
▁cash	-8361
▁只是	-8362
hington	-8363
太平	-8364
ressing	-8365
谨慎	-8366
▁everyday	-8367
uration	-8368
alle	-8369
ologists	-8370
▁initiative	-8371
▁sought	-8372
幸的是	-8373
▁shapes	-8374
监控	-8375
白色	-8376
特别是在	-8377
▁library	-8378
更快	-8379
unk	-8380
▁extract	-8381
fl	-8382
▁hurt	-8383
▁attrib	-8384
▁卡	-8385
▁unp	-8386
▁susp	-8387
信心	-8388
的食物	-8389
都没有	-8390
▁repeated	-8391
重要作用	-8392
▁Meanwhile	-8393
aper	-8394
HC	-8395
▁introduce	-8396
主义者	-8397
▁eld	-8398
▁honest	-8399
▁describe	-8400
种类	-8401
▁rid	-8402
▁habits	-8403
▁consultations	-8404
AN	-8405
▁通常	-8406
▁depends	-8407
▁powers	-8408
▁Alex	-8409
▁relation	-8410
报纸	-8411
▁alcohol	-8412
▁tight	-8413
▁appeared	-8414
▁benefic	-8415
的那样	-8416
▁guard	-8417
活跃	-8418
▁她的	-8419
▁adopt	-8420
olid	-8421
剥夺	-8422
▁III	-8423
留在	-8424
主动	-8425
蛋白质	-8426
▁responses	-8427
▁harmon	-8428
▁shut	-8429
▁bacteria	-8430
▁List	-8431
▁priorities	-8432
修订	-8433
ront	-8434
▁Disc	-8435
▁asp	-8436
▁recip	-8437
▁embracing	-8438
出现的	-8439
血管	-8440
▁1999	-8441
某人	-8442
▁Jesus	-8443
▁inspired	-8444
▁cere	-8445
▁France	-8446
ault	-8447
▁movie	-8448
▁Germany	-8449
爸爸	-8450
▁version	-8451
▁push	-8452
▁penal	-8453
一生	-8454
▁cars	-8455
▁加	-8456
ensity	-8457
广播	-8458
提到的	-8459
whel	-8460
▁shif	-8461
alities	-8462
现有的	-8463
2009	-8464
捕捉	-8465
ondon	-8466
分发	-8467
▁haz	-8468
打印	-8469
▁aftern	-8470
的最佳	-8471
▁entertain	-8472
判决	-8473
我能	-8474
之为	-8475
机关	-8476
全世界	-8477
ansion	-8478
▁lie	-8479
▁satisfact	-8480
▁district	-8481
▁Education	-8482
▁inner	-8483
▁surprise	-8484
▁上	-8485
oves	-8486
▁council	-8487
▁extended	-8488
热爱	-8489
▁entities	-8490
还将	-8491
抗议	-8492
鼓舞	-8493
▁stem	-8494
心理健康	-8495
▁plastic	-8496
▁pil	-8497
优先事项	-8498
电池	-8499
的位置	-8500
▁liquid	-8501
▁dogs	-8502
▁encouraging	-8503
▁safegu	-8504
▁enthus	-8505
合物	-8506
之一是	-8507
困境	-8508
▁subjects	-8509
敌人	-8510
将这些	-8511
习俗	-8512
osite	-8513
eting	-8514
▁drawn	-8515
▁dism	-8516
众多	-8517
依据	-8518
▁我们在	-8519
▁Mod	-8520
▁revolution	-8521
并与	-8522
▁east	-8523
▁Str	-8524
▁communications	-8525
从来没有	-8526
▁commission	-8527
好吗	-8528
▁cy	-8529
ya	-8530
▁chief	-8531
浪费	-8532
▁thin	-8533
▁entered	-8534
▁remarkable	-8535
▁statistics	-8536
进化	-8537
创伤	-8538
五个	-8539
摧毁	-8540
▁inclusive	-8541
▁examining	-8542
▁Exec	-8543
▁summary	-8544
▁indicate	-8545
olec	-8546
坚定	-8547
▁proport	-8548
更深入	-8549
▁Without	-8550
扩散	-8551
rie	-8552
▁Western	-8553
到来	-8554
发挥作用	-8555
太平洋	-8556
人类的	-8557
▁audit	-8558
▁dispos	-8559
▁gained	-8560
▁pages	-8561
▁magic	-8562
我将	-8563
引用	-8564
▁Plan	-8565
▁meat	-8566
▁unw	-8567
社区的	-8568
废物	-8569
▁milk	-8570
▁uncertain	-8571
非政府	-8572
irt	-8573
▁proceedings	-8574
▁fal	-8575
执法	-8576
▁Division	-8577
勇气	-8578
装置	-8579
bur	-8580
▁creates	-8581
▁square	-8582
▁Hong	-8583
▁Fol	-8584
▁walked	-8585
▁suitable	-8586
层次	-8587
顺利	-8588
▁inspire	-8589
▁Lat	-8590
自行车	-8591
拿起	-8592
▁Enc	-8593
仍然是	-8594
所做的	-8595
▁jew	-8596
向前	-8597
主权	-8598
较低	-8599
全面的	-8600
▁inequ	-8601
▁奥	-8602
合适的	-8603
安全和	-8604
称之为	-8605
▁greatly	-8606
▁diplom	-8607
▁america	-8608
▁accounts	-8609
不受	-8610
▁24	-8611
▁rub	-8612
电子邮件	-8613
▁tack	-8614
▁legit	-8615
▁mostly	-8616
23	-8617
cure	-8618
asc	-8619
▁Mem	-8620
▁当他	-8621
之下	-8622
落实	-8623
▁enemy	-8624
类似的	-8625
▁houses	-8626
▁surgery	-8627
索赔	-8628
▁prove	-8629
▁specialized	-8630
ureau	-8631
▁moon	-8632
▁obstacles	-8633
候选人	-8634
▁volunte	-8635
震惊	-8636
ville	-8637
▁ath	-8638
akers	-8639
▁economies	-8640
oom	-8641
▁row	-8642
▁cloud	-8643
anish	-8644
我对	-8645
▁accomp	-8646
▁bigger	-8647
就在	-8648
▁如果我们	-8649
▁precise	-8650
做到这一点	-8651
▁primarily	-8652
▁minimum	-8653
▁Che	-8654
失所	-8655
theless	-8656
流离	-8657
强制	-8658
不良	-8659
▁acce	-8660
验证	-8661
2005	-8662
▁tall	-8663
体制	-8664
▁Mill	-8665
分裂	-8666
iang	-8667
▁centuries	-8668
旁边	-8669
被认为是	-8670
▁horiz	-8671
▁Cub	-8672
▁complicated	-8673
苹果	-8674
▁salt	-8675
icking	-8676
形象	-8677
天的	-8678
▁Up	-8679
▁transparency	-8680
ographic	-8681
了他们	-8682
▁100	-8683
▁recall	-8684
学生们	-8685
▁clothes	-8686
以往	-8687
取消	-8688
少的	-8689
村庄	-8690
船只	-8691
穆斯	-8692
你应该	-8693
▁nearby	-8694
强迫	-8695
卫星	-8696
▁Again	-8697
itement	-8698
液体	-8699
repren	-8700
艾滋	-8701
治愈	-8702
▁leader	-8703
杀死	-8704
模糊	-8705
永久	-8706
的行动	-8707
俱乐部	-8708
去世	-8709
elve	-8710
▁Ant	-8711
▁Article	-8712
▁presentation	-8713
分开	-8714
uine	-8715
▁epis	-8716
▁rare	-8717
令人惊叹的	-8718
意外	-8719
常规	-8720
▁biggest	-8721
▁agriculture	-8722
▁signal	-8723
▁previously	-8724
▁Leban	-8725
分歧	-8726
毕竟	-8727
▁referred	-8728
▁indicated	-8729
会计	-8730
原住	-8731
了我们	-8732
品牌	-8733
创意	-8734
▁Indian	-8735
▁afternoon	-8736
观念	-8737
▁computers	-8738
▁Children	-8739
▁height	-8740
▁mountain	-8741
和发展	-8742
▁alive	-8743
que	-8744
圣诞	-8745
都要	-8746
流程	-8747
▁Advis	-8748
▁Having	-8749
▁norms	-8750
▁lady	-8751
▁poly	-8752
地上	-8753
▁acid	-8754
▁definitely	-8755
可怕的	-8756
流离失所	-8757
ket	-8758
▁sched	-8759
▁selection	-8760
给他们	-8761
▁harmful	-8762
图表	-8763
▁withd	-8764
拉丁	-8765
遇到了	-8766
段时间	-8767
▁friendly	-8768
▁amid	-8769
服装	-8770
▁electronic	-8771
的可	-8772
还能	-8773
的政治	-8774
▁sir	-8775
▁roots	-8776
▁match	-8777
EF	-8778
两者	-8779
▁argument	-8780
ented	-8781
▁reflected	-8782
eding	-8783
▁carrying	-8784
这对	-8785
ao	-8786
着至关重要的	-8787
而非	-8788
强调了	-8789
▁sorry	-8790
大大	-8791
▁enhancing	-8792
内心	-8793
证实	-8794
有时候	-8795
诚实	-8796
▁curren	-8797
浏览	-8798
概述	-8799
▁calm	-8800
▁nur	-8801
▁centre	-8802
▁dance	-8803
男子	-8804
inding	-8805
叙事	-8806
拍摄	-8807
失业	-8808
滥用	-8809
说服	-8810
▁sharp	-8811
▁genuine	-8812
词汇	-8813
邻居	-8814
▁waters	-8815
争取	-8816
▁preserve	-8817
在整个	-8818
▁prol	-8819
▁sovere	-8820
▁memories	-8821
▁2014	-8822
营销	-8823
意愿	-8824
▁River	-8825
获得的	-8826
该地区	-8827
▁wave	-8828
▁massive	-8829
▁intellectual	-8830
食用	-8831
▁bes	-8832
▁cup	-8833
▁apparent	-8834
▁financing	-8835
这么多	-8836
缓慢	-8837
一开始	-8838
▁disag	-8839
▁arts	-8840
▁yield	-8841
原住民	-8842
▁honor	-8843
的心	-8844
▁remote	-8845
让人	-8846
▁mrs	-8847
复制	-8848
更高	-8849
athered	-8850
提交人	-8851
▁insight	-8852
都不	-8853
▁settings	-8854
社交媒体	-8855
▁中	-8856
eline	-8857
▁Glob	-8858
多次	-8859
冥想	-8860
睡觉	-8861
▁finished	-8862
▁Sur	-8863
▁courage	-8864
克兰	-8865
▁thy	-8866
两次	-8867
都被	-8868
▁stead	-8869
▁比	-8870
igor	-8871
emic	-8872
损伤	-8873
如何在	-8874
▁actors	-8875
体重	-8876
不平等	-8877
ugg	-8878
朋友们	-8879
▁Day	-8880
中所	-8881
▁每个	-8882
▁affecting	-8883
我们希望	-8884
▁preserving	-8885
取代	-8886
回收	-8887
景观	-8888
▁unity	-8889
摄入	-8890
▁gradually	-8891
▁laugh	-8892
房屋	-8893
说法	-8894
货物	-8895
▁surve	-8896
▁combined	-8897
▁intent	-8898
变量	-8899
▁21	-8900
▁virus	-8901
▁genetic	-8902
▁selected	-8903
失望	-8904
▁shift	-8905
▁drinking	-8906
第四	-8907
▁必须	-8908
▁delight	-8909
让它	-8910
anges	-8911
▁neither	-8912
列入	-8913
▁dynamic	-8914
▁contrast	-8915
字母	-8916
▁constra	-8917
现金	-8918
开始了	-8919
穆斯林	-8920
▁eager	-8921
▁trained	-8922
▁integrity	-8923
首次	-8924
▁narrow	-8925
特殊的	-8926
名称	-8927
界限	-8928
其中的	-8929
▁western	-8930
▁interaction	-8931
约束	-8932
▁Iran	-8933
▁migration	-8934
▁Out	-8935
▁preparing	-8936
book	-8937
▁philosophy	-8938
的数量	-8939
▁desired	-8940
▁senior	-8941
有多少	-8942
▁syn	-8943
▁ingredients	-8944
▁preventing	-8945
▁serves	-8946
▁partnership	-8947
▁establishing	-8948
▁spl	-8949
▁fash	-8950
▁criteria	-8951
▁ideal	-8952
▁troops	-8953
编制	-8954
重要性	-8955
under	-8956
▁courses	-8957
28	-8958
▁noise	-8959
▁Korea	-8960
▁Associ	-8961
欧洲联盟	-8962
十字	-8963
随机	-8964
▁applying	-8965
▁overwhel	-8966
延长	-8967
歌曲	-8968
▁faces	-8969
cul	-8970
▁underlying	-8971
▁fly	-8972
书面	-8973
味道	-8974
是有	-8975
▁sentence	-8976
不必	-8977
手指	-8978
的使用	-8979
拯救	-8980
进去	-8981
▁Read	-8982
▁classroom	-8983
一边	-8984
辐射	-8985
昆虫	-8986
▁doors	-8987
▁reaction	-8988
▁接下来	-8989
ighter	-8990
为你	-8991
议院	-8992
▁tub	-8993
携带	-8994
▁kindness	-8995
▁beat	-8996
▁abilities	-8997
▁Japanese	-8998
▁supplies	-8999
▁regardless	-9000
毁灭	-9001
尔德	-9002
▁obviously	-9003
▁protected	-9004
▁各	-9005
更有	-9006
因为他	-9007
我不知道	-9008
▁retain	-9009
▁tomorrow	-9010
rogen	-9011
▁agency	-9012
▁missing	-9013
分别	-9014
▁commitments	-9015
技术和	-9016
▁scholars	-9017
▁Perhaps	-9018
tes	-9019
▁guarantee	-9020
当他们	-9021
教育和	-9022
▁examination	-9023
把它们	-9024
孩子的	-9025
▁muscle	-9026
▁chain	-9027
▁finance	-9028
▁volume	-9029
尽量	-9030
还会	-9031
核武器	-9032
代理	-9033
▁Executive	-9034
形态	-9035
无限	-9036
伙计	-9037
看见	-9038
花费	-9039
▁rand	-9040
▁muscles	-9041
奇妙	-9042
十五	-9043
▁focusing	-9044
▁posts	-9045
▁compliance	-9046
白人	-9047
▁manufacture	-9048
▁海	-9049
▁stro	-9050
iously	-9051
繁殖	-9052
▁insect	-9053
和解	-9054
这么做	-9055
抵抗	-9056
创造一个	-9057
aming	-9058
comed	-9059
日至	-9060
▁rom	-9061
▁Kong	-9062
记者	-9063
美食	-9064
▁demonstrate	-9065
方便	-9066
会发生什么	-9067
灵感	-9068
▁joined	-9069
▁database	-9070
▁termin	-9071
特朗	-9072
▁fabric	-9073
我们现在	-9074
▁customs	-9075
每周	-9076
年轻的	-9077
我没有	-9078
报告的	-9079
我希望	-9080
▁hun	-9081
▁rose	-9082
▁dinner	-9083
▁Internet	-9084
2007	-9085
▁coffee	-9086
▁welcomed	-9087
▁definition	-9088
▁myst	-9089
▁expend	-9090
器官	-9091
▁1998	-9092
人力	-9093
邪恶	-9094
关联	-9095
▁math	-9096
▁exercises	-9097
进口	-9098
▁texts	-9099
千年发展目标	-9100
到底	-9101
在你的	-9102
▁brown	-9103
▁Kingdom	-9104
知的	-9105
▁residents	-9106
▁emotion	-9107
▁不是	-9108
黑色	-9109
的一项	-9110
▁hat	-9111
▁invited	-9112
我就	-9113
专业人士	-9114
▁prospect	-9115
▁Environ	-9116
▁contributed	-9117
tering	-9118
牺牲	-9119
▁limits	-9120
接下来的	-9121
▁rail	-9122
▁fourth	-9123
的核心	-9124
▁bridge	-9125
课程单元	-9126
▁waves	-9127
▁counsel	-9128
小型	-9129
我很	-9130
妇女的	-9131
▁perce	-9132
▁complexity	-9133
arsh	-9134
▁depression	-9135
命运	-9136
lessly	-9137
要素	-9138
▁OF	-9139
▁nurs	-9140
伟大	-9141
2006	-9142
轨道	-9143
▁dreams	-9144
▁delve	-9145
▁differently	-9146
▁conver	-9147
▁chemicals	-9148
reen	-9149
所作	-9150
课堂	-9151
斯的	-9152
日的	-9153
▁email	-9154
▁centres	-9155
▁grown	-9156
栖息地	-9157
他对	-9158
目标是	-9159
将被	-9160
▁concluded	-9161
在他们	-9162
▁represented	-9163
mark	-9164
▁combination	-9165
roc	-9166
▁另一个	-9167
变成了	-9168
eness	-9169
▁links	-9170
▁ine	-9171
▁healing	-9172
清理	-9173
▁pod	-9174
▁absence	-9175
▁直到	-9176
游泳	-9177
性恋	-9178
▁eggs	-9179
▁affects	-9180
▁entrepren	-9181
主人	-9182
▁Americans	-9183
设计的	-9184
ommod	-9185
▁System	-9186
国民	-9187
▁judges	-9188
激素	-9189
论点	-9190
▁fashion	-9191
▁Similarly	-9192
▁Roman	-9193
▁Pract	-9194
▁Pacific	-9195
▁molec	-9196
▁export	-9197
▁discussing	-9198
她在	-9199
见到	-9200
特朗普	-9201
向你	-9202
▁comprom	-9203
▁marketing	-9204
全体	-9205
逮捕	-9206
arge	-9207
▁tea	-9208
需要的	-9209
▁tells	-9210
▁fairly	-9211
秩序	-9212
▁earn	-9213
▁married	-9214
但它们	-9215
生活方式	-9216
方程	-9217
接收	-9218
▁克	-9219
人心的	-9220
成功地	-9221
▁coal	-9222
度过	-9223
游客	-9224
持续的	-9225
cend	-9226
境内	-9227
起了	-9228
会者	-9229
行使	-9230
26	-9231
▁Water	-9232
使我们能够	-9233
便利	-9234
上所述	-9235
涉及到	-9236
驱动	-9237
▁barriers	-9238
去除	-9239
风暴	-9240
部和	-9241
▁IV	-9242
ventional	-9243
意思是	-9244
本国	-9245
▁31	-9246
做出了	-9247
是否有	-9248
ords	-9249
45	-9250
▁arbit	-9251
▁constantly	-9252
▁天	-9253
▁sixt	-9254
▁marine	-9255
▁layers	-9256
迄今	-9257
过敏	-9258
▁seeds	-9259
2011	-9260
发电	-9261
▁pump	-9262
▁advert	-9263
叙述	-9264
▁toler	-9265
的人的	-9266
高中	-9267
看起来像	-9268
▁Environment	-9269
po	-9270
得很	-9271
ateful	-9272
▁ordinary	-9273
▁performed	-9274
街道	-9275
把他	-9276
abling	-9277
带有	-9278
管道	-9279
干净	-9280
▁demands	-9281
▁routine	-9282
▁Treat	-9283
▁Global	-9284
▁mad	-9285
再生	-9286
otic	-9287
▁captivating	-9288
▁gently	-9289
会被	-9290
▁stable	-9291
谁知道	-9292
遭到	-9293
税收	-9294
▁behalf	-9295
意图	-9296
omfort	-9297
▁有时	-9298
初步	-9299
碎片	-9300
ennium	-9301
▁ham	-9302
▁indicators	-9303
愿望	-9304
立刻	-9305
舞蹈	-9306
▁breast	-9307
可能在	-9308
2012	-9309
▁supports	-9310
之间的关系	-9311
▁victim	-9312
了关于	-9313
▁Es	-9314
▁detention	-9315
▁Oper	-9316
▁equally	-9317
▁promise	-9318
▁intervention	-9319
va	-9320
▁可以	-9321
▁gro	-9322
▁heads	-9323
▁contributing	-9324
附件	-9325
ultural	-9326
惊人的	-9327
部门的	-9328
▁seriously	-9329
27	-9330
▁continuous	-9331
using	-9332
▁exposed	-9333
▁celebrate	-9334
水和	-9335
加速	-9336
▁virtual	-9337
看待	-9338
▁southern	-9339
头脑	-9340
朝鲜	-9341
▁Fam	-9342
▁wet	-9343
自豪	-9344
▁Def	-9345
成绩	-9346
ygen	-9347
▁sport	-9348
▁traum	-9349
▁trend	-9350
▁instructions	-9351
家伙	-9352
雇主	-9353
具备	-9354
匹配	-9355
失去了	-9356
同情心	-9357
火车	-9358
▁recognizing	-9359
▁machines	-9360
▁鉴于	-9361
的各种	-9362
背后的	-9363
▁stressed	-9364
GO	-9365
怎么样	-9366
犹豫	-9367
玩耍	-9368
生殖	-9369
微妙	-9370
▁Sudan	-9371
▁australia	-9372
▁random	-9373
提取	-9374
▁Elect	-9375
▁tips	-9376
走进	-9377
变得更	-9378
iate	-9379
▁suffer	-9380
很有趣	-9381
▁till	-9382
▁City	-9383
90	-9384
余的	-9385
▁mitig	-9386
▁pull	-9387
在某些	-9388
▁laun	-9389
稳定的	-9390
▁我们将	-9391
▁begins	-9392
▁这不是	-9393
▁rising	-9394
儿童的	-9395
反映了	-9396
在内的	-9397
月份	-9398
ka	-9399
发射	-9400
群岛	-9401
▁dust	-9402
▁depos	-9403
▁civilian	-9404
▁observations	-9405
▁rac	-9406
▁zero	-9407
abetes	-9408
演变	-9409
理解和	-9410
一切都	-9411
roduct	-9412
▁excitement	-9413
▁在我	-9414
▁说	-9415
介绍了	-9416
▁anticip	-9417
最低	-9418
并对	-9419
▁pure	-9420
▁watched	-9421
▁participating	-9422
真相	-9423
结束时	-9424
生成	-9425
处的	-9426
暗示	-9427
ught	-9428
▁studied	-9429
agues	-9430
▁fixed	-9431
完成了	-9432
很多人	-9433
oyal	-9434
▁sister	-9435
遥远	-9436
如何影响	-9437
哥伦	-9438
asters	-9439
▁consent	-9440
神话	-9441
讨论了	-9442
▁vehicles	-9443
▁expansion	-9444
单一	-9445
▁Main	-9446
板上	-9447
退休	-9448
了一项	-9449
时间和	-9450
▁vehicle	-9451
▁Follow	-9452
追踪	-9453
▁实际上	-9454
▁seat	-9455
▁vegetables	-9456
▁accommod	-9457
▁voices	-9458
权的	-9459
安静	-9460
utor	-9461
▁Tribunal	-9462
政党	-9463
▁define	-9464
陈述	-9465
la	-9466
▁memor	-9467
▁Br	-9468
错误的	-9469
▁expensive	-9470
我有	-9471
▁county	-9472
▁有人	-9473
▁这将	-9474
资源的	-9475
▁ancest	-9476
必需	-9477
▁strongly	-9478
▁overl	-9479
▁ben	-9480
▁emissions	-9481
▁org	-9482
被迫	-9483
陌生	-9484
dule	-9485
lymp	-9486
节奏	-9487
▁improvements	-9488
通过了解	-9489
abled	-9490
排除	-9491
▁laid	-9492
继承	-9493
▁flo	-9494
▁candidates	-9495
▁我是说	-9496
▁neighborhood	-9497
▁这意味着	-9498
美国的	-9499
alk	-9500
rors	-9501
▁consumers	-9502
▁yellow	-9503
▁unlike	-9504
▁maximum	-9505
▁recommendation	-9506
是从	-9507
不够	-9508
的例子	-9509
基斯坦	-9510
▁sin	-9511
▁realm	-9512
▁Democratic	-9513
▁Ref	-9514
▁legislative	-9515
▁50	-9516
学和	-9517
▁Geor	-9518
▁alongside	-9519
很久	-9520
移徙	-9521
达尔	-9522
必须在	-9523
▁inhab	-9524
▁hes	-9525
▁generate	-9526
▁settlement	-9527
▁一种	-9528
▁Eth	-9529
elled	-9530
asures	-9531
▁你能	-9532
整合	-9533
大多数人	-9534
uous	-9535
▁obligation	-9536
isation	-9537
▁fract	-9538
▁compensation	-9539
哪个	-9540
科学家们	-9541
顶部	-9542
▁achievement	-9543
的海	-9544
▁我可以	-9545
asp	-9546
铁路	-9547
▁locations	-9548
▁gap	-9549
以上	-9550
▁younger	-9551
▁customer	-9552
▁bone	-9553
▁bonds	-9554
展现	-9555
▁brand	-9556
▁trump	-9557
挖掘	-9558
▁curric	-9559
太阳能	-9560
线索	-9561
包装	-9562
家长	-9563
▁identifying	-9564
▁boat	-9565
政府和	-9566
▁pointed	-9567
zil	-9568
领导者	-9569
▁Mexico	-9570
▁Est	-9571
vance	-9572
▁Justice	-9573
▁staying	-9574
最不	-9575
▁deliber	-9576
oned	-9577
▁hoped	-9578
▁largely	-9579
ux	-9580
组件	-9581
▁mobile	-9582
中东	-9583
尔斯	-9584
绘画	-9585
舒服	-9586
机构和	-9587
▁alt	-9588
arity	-9589
▁calling	-9590
左右	-9591
他们是	-9592
方面发挥	-9593
分散	-9594
家园	-9595
亚历克斯	-9596
▁rough	-9597
标题	-9598
表格	-9599
▁wid	-9600
▁ends	-9601
▁paying	-9602
aching	-9603
▁painting	-9604
方案的	-9605
安慰	-9606
节省	-9607
▁twice	-9608
优秀	-9609
的来说	-9610
▁folks	-9611
▁哈	-9612
这位	-9613
荷兰	-9614
路径	-9615
的形式	-9616
▁196	-9617
导航	-9618
▁pool	-9619
▁tissue	-9620
并确保	-9621
均匀	-9622
▁cas	-9623
▁racial	-9624
▁flag	-9625
后代	-9626
▁twelve	-9627
▁recorded	-9628
今晚	-9629
▁legs	-9630
▁更	-9631
hent	-9632
并未	-9633
iform	-9634
▁gathered	-9635
▁empt	-9636
因为我们	-9637
▁newsp	-9638
本地	-9639
▁myth	-9640
愚蠢	-9641
eav	-9642
▁meal	-9643
▁Sever	-9644
▁respective	-9645
专题	-9646
召开	-9647
▁bread	-9648
▁latter	-9649
金钱	-9650
▁dad	-9651
▁clust	-9652
▁signed	-9653
限于	-9654
▁resulted	-9655
为何	-9656
▁interactions	-9657
数百万	-9658
▁fruits	-9659
▁attached	-9660
激烈	-9661
phone	-9662
▁serving	-9663
格式	-9664
非正式	-9665
组成的	-9666
▁formation	-9667
一无	-9668
▁york	-9669
▁possibly	-9670
rows	-9671
▁swim	-9672
▁europe	-9673
▁但这	-9674
▁为此	-9675
死了	-9676
ilization	-9677
▁pig	-9678
▁cogn	-9679
▁manif	-9680
裁决	-9681
▁Prof	-9682
灭绝	-9683
ificial	-9684
▁没	-9685
▁temporary	-9686
年级	-9687
有利于	-9688
dy	-9689
受到了	-9690
▁regime	-9691
▁Jud	-9692
经费	-9693
首脑	-9694
▁settle	-9695
wered	-9696
▁reaching	-9697
▁escape	-9698
ratulations	-9699
很棒	-9700
它们是	-9701
▁forever	-9702
听着	-9703
▁斯	-9704
▁delicious	-9705
▁architecture	-9706
▁About	-9707
▁payment	-9708
▁Try	-9709
底部	-9710
▁综	-9711
我只是	-9712
▁error	-9713
任何时候	-9714
典型	-9715
▁double	-9716
▁glad	-9717
rators	-9718
▁neck	-9719
fall	-9720
水的	-9721
ams	-9722
这个过程	-9723
ederation	-9724
ef	-9725
光线	-9726
你是否	-9727
以及在	-9728
区分	-9729
它将	-9730
的事	-9731
蓝色	-9732
▁Pat	-9733
▁Hel	-9734
▁rely	-9735
▁magical	-9736
ador	-9737
▁informal	-9738
的政策	-9739
active	-9740
厨房	-9741
明天	-9742
经理	-9743
▁motor	-9744
谷歌	-9745
的讨论	-9746
29	-9747
▁Panel	-9748
▁intricate	-9749
▁receiving	-9750
了许多	-9751
从中	-9752
aration	-9753
▁prosper	-9754
▁应	-9755
▁Thanks	-9756
极其	-9757
长大	-9758
iat	-9759
being	-9760
背景下	-9761
绘制	-9762
信息和	-9763
▁Institute	-9764
▁stages	-9765
▁reasonable	-9766
第二次	-9767
和一个	-9768
的选择	-9769
usal	-9770
iders	-9771
▁tough	-9772
▁harmony	-9773
ortion	-9774
▁latest	-9775
▁northern	-9776
▁inqu	-9777
▁societal	-9778
帮助他们	-9779
▁如何	-9780
habilit	-9781
加工	-9782
▁我们可以	-9783
▁Several	-9784
残疾人	-9785
▁unus	-9786
fulness	-9787
与其	-9788
了他们的	-9789
▁operate	-9790
▁dign	-9791
▁considerable	-9792
充足	-9793
主任	-9794
▁furn	-9795
的经历	-9796
oke	-9797
▁industries	-9798
的那	-9799
让她	-9800
EP	-9801
可用	-9802
分之一	-9803
umber	-9804
aj	-9805
▁scar	-9806
出席	-9807
提前	-9808
利润	-9809
令人兴奋	-9810
▁Had	-9811
lines	-9812
orses	-9813
▁distingu	-9814
▁marked	-9815
ulf	-9816
▁第三	-9817
▁plot	-9818
疾病的	-9819
制裁	-9820
▁secrets	-9821
▁dynamics	-9822
2004	-9823
▁Asian	-9824
▁oxygen	-9825
▁mun	-9826
▁injuries	-9827
▁endeav	-9828
土著人民	-9829
▁moist	-9830
▁lands	-9831
爱情	-9832
配置	-9833
能够在	-9834
cers	-9835
▁urgent	-9836
信念	-9837
▁butter	-9838
itors	-9839
▁spons	-9840
▁opposite	-9841
会上	-9842
▁keeps	-9843
akistan	-9844
bles	-9845
▁analyze	-9846
▁survival	-9847
▁El	-9848
输出	-9849
▁obtained	-9850
检察官	-9851
的最后	-9852
▁affairs	-9853
▁designs	-9854
▁difficulty	-9855
known	-9856
▁resolve	-9857
▁television	-9858
▁naturally	-9859
▁alike	-9860
▁opinions	-9861
印刷	-9862
▁Har	-9863
▁kitc	-9864
zen	-9865
地球上	-9866
加拉	-9867
atell	-9868
▁balanced	-9869
创建一个	-9870
▁sustainability	-9871
jud	-9872
▁wound	-9873
依靠	-9874
▁reward	-9875
amber	-9876
▁spark	-9877
的区域	-9878
▁enables	-9879
▁positively	-9880
▁substance	-9881
▁instances	-9882
▁exists	-9883
通常会	-9884
▁distur	-9885
▁wellbeing	-9886
何时	-9887
国家和	-9888
联合国系统	-9889
▁cart	-9890
▁5.	-9891
▁false	-9892
代价	-9893
▁princip	-9894
困扰	-9895
▁countless	-9896
北部	-9897
孤独	-9898
▁convey	-9899
▁第一	-9900
继续探索	-9901
▁dress	-9902
▁German	-9903
▁handling	-9904
感知	-9905
隐私	-9906
vity	-9907
▁merely	-9908
▁beneath	-9909
OM	-9910
▁outd	-9911
▁Congress	-9912
▁Afghanistan	-9913
▁collected	-9914
▁Bar	-9915
▁granted	-9916
空中	-9917
▁upper	-9918
学位	-9919
一群	-9920
得出	-9921
▁enabling	-9922
▁lasting	-9923
我们应该	-9924
贵的	-9925
▁cab	-9926
irms	-9927
▁evaluate	-9928
时光	-9929
第二个	-9930
ocking	-9931
上帝的	-9932
▁suffered	-9933
犹太人	-9934
多年	-9935
▁meals	-9936
▁vibrant	-9937
▁electrical	-9938
▁fantastic	-9939
▁sixty	-9940
成了	-9941
应用于	-9942
权威	-9943
澄清	-9944
haust	-9945
否认	-9946
之间的联系	-9947
▁enjoyed	-9948
生素	-9949
计划的	-9950
刚果	-9951
▁psychological	-9952
这些人	-9953
stitution	-9954
▁tales	-9955
▁poem	-9956
itis	-9957
几周	-9958
▁somewhere	-9959
了它	-9960
领袖	-9961
ustralian	-9962
节日	-9963
▁NGO	-9964
▁medium	-9965
促使	-9966
她说	-9967
isher	-9968
▁Representative	-9969
有能力	-9970
▁precious	-9971
▁secondary	-9972
器的	-9973
▁综上所述	-9974
▁streets	-9975
otal	-9976
当他	-9977
▁partnerships	-9978
▁enhanced	-9979
生涯	-9980
创造出	-9981
▁artistic	-9982
夏天	-9983
▁era	-9984
我们都	-9985
祖先	-9986
▁Sen	-9987
美好的	-9988
独自	-9989
▁panel	-9990
illa	-9991
▁seed	-9992
verning	-9993
▁explos	-9994
研究的	-9995
▁extensive	-9996
采访	-9997
▁entry	-9998
▁behaviors	-9999
▁introduction	-10000
▁arise	-10001
▁在我们	-10002
▁camera	-10003
强化	-10004
▁submit	-10005
▁paralle	-10006
wood	-10007
侵害	-10008
▁ownership	-10009
有力的	-10010
纠正	-10011
▁holds	-10012
gests	-10013
▁proved	-10014
我们如何	-10015
令人着迷	-10016
▁AN	-10017
是关于	-10018
▁capture	-10019
▁accompan	-10020
化合物	-10021
报告中	-10022
lihood	-10023
▁approval	-10024
区的	-10025
▁Indeed	-10026
▁involvement	-10027
机场	-10028
公路	-10029
精心	-10030
房间里	-10031
供应商	-10032
一半	-10033
▁fifteen	-10034
▁grat	-10035
▁puzz	-10036
▁Unfortunately	-10037
总结	-10038
重的	-10039
▁sacr	-10040
▁blind	-10041
▁Director	-10042
南方	-10043
▁Bur	-10044
▁raising	-10045
水中	-10046
▁convin	-10047
▁biological	-10048
▁我们必须	-10049
▁breaking	-10050
▁bot	-10051
▁launch	-10052
更多关于	-10053
▁eliminate	-10054
更好地理解	-10055
响应	-10056
赞赏	-10057
▁terrorist	-10058
马拉	-10059
▁complement	-10060
▁smile	-10061
▁losing	-10062
第十	-10063
icy	-10064
效应	-10065
教练	-10066
▁contam	-10067
▁Air	-10068
数百	-10069
成为一名	-10070
▁Being	-10071
服用	-10072
环保	-10073
问责	-10074
▁imagination	-10075
看似	-10076
▁dil	-10077
水分	-10078
▁union	-10079
过于	-10080
▁frag	-10081
图形	-10082
▁believes	-10083
这座	-10084
酷刑	-10085
▁wildlife	-10086
▁manager	-10087
lers	-10088
▁treatments	-10089
▁enorm	-10090
▁reliable	-10091
马上	-10092
强烈的	-10093
还需要	-10094
▁demonstrated	-10095
▁observe	-10096
▁Bas	-10097
清除	-10098
▁officer	-10099
▁institution	-10100
什么时候	-10101
▁Summ	-10102
▁clients	-10103
问题上	-10104
▁consolid	-10105
itudes	-10106
消耗	-10107
有助于我们	-10108
护士	-10109
偶尔	-10110
魔法	-10111
▁commonly	-10112
▁breathing	-10113
▁frequency	-10114
ogle	-10115
che	-10116
PA	-10117
已经被	-10118
▁suggests	-10119
教室	-10120
▁tension	-10121
▁billion	-10122
IV	-10123
▁无	-10124
庇护	-10125
延伸	-10126
主义的	-10127
▁Mor	-10128
未经	-10129
萨斯	-10130
▁spr	-10131
▁consumer	-10132
▁jurisdiction	-10133
言论	-10134
▁需要	-10135
▁targeted	-10136
▁survive	-10137
设法	-10138
▁sample	-10139
▁zone	-10140
▁Id	-10141
逐步	-10142
支撑	-10143
sequent	-10144
▁controlled	-10145
▁everywhere	-10146
和管理	-10147
▁organs	-10148
做的是	-10149
施加	-10150
down	-10151
▁papers	-10152
▁essentially	-10153
膨胀	-10154
▁manip	-10155
也不会	-10156
面临着	-10157
▁Conf	-10158
致命	-10159
选民	-10160
过滤	-10161
▁下	-10162
▁fro	-10163
rients	-10164
▁initially	-10165
投资者	-10166
为自己	-10167
itals	-10168
▁Bet	-10169
▁heavily	-10170
顺序	-10171
▁intention	-10172
▁hole	-10173
unction	-10174
待遇	-10175
▁Students	-10176
活力	-10177
▁targets	-10178
ishes	-10179
演员	-10180
牧师	-10181
▁athlet	-10182
▁elected	-10183
起初	-10184
重量	-10185
▁Phil	-10186
▁organic	-10187
深度	-10188
完美的	-10189
▁County	-10190
先进	-10191
的承诺	-10192
▁quarter	-10193
研究所	-10194
ript	-10195
▁forgot	-10196
阐述	-10197
原因是	-10198
▁gall	-10199
▁passing	-10200
真诚	-10201
▁cher	-10202
更高的	-10203
已经在	-10204
semin	-10205
▁outer	-10206
的高	-10207
▁并且	-10208
lusions	-10209
▁incident	-10210
ultane	-10211
消化	-10212
调节	-10213
和环境	-10214
酒店	-10215
▁Advisory	-10216
没有什么	-10217
耳朵	-10218
科医生	-10219
一段时间	-10220
unity	-10221
▁corruption	-10222
频繁	-10223
鱼类	-10224
中有	-10225
了我的	-10226
▁lights	-10227
▁workshops	-10228
▁最近	-10229
ulum	-10230
▁Russia	-10231
尺寸	-10232
夜晚	-10233
▁english	-10234
▁totally	-10235
长度	-10236
▁flight	-10237
▁England	-10238
酒精	-10239
磋商	-10240
大气	-10241
2003	-10242
▁solving	-10243
▁raw	-10244
的项目	-10245
▁substantive	-10246
一代	-10247
的外	-10248
日常生活	-10249
▁authent	-10250
维尔	-10251
▁Jewish	-10252
本章	-10253
▁flour	-10254
是一项	-10255
辩护	-10256
装备	-10257
我们正在	-10258
▁Four	-10259
信息的	-10260
rosc	-10261
rum	-10262
谴责	-10263
▁fold	-10264
▁aircraft	-10265
但这	-10266
的领域	-10267
误解	-10268
▁好的	-10269
▁adventures	-10270
寻常	-10271
提问	-10272
和支持	-10273
..	-10274
uan	-10275
mates	-10276
恶化	-10277
足以	-10278
塞尔	-10279
▁literary	-10280
▁tum	-10281
▁accessible	-10282
各种各	-10283
eday	-10284
▁hung	-10285
在那	-10286
生病	-10287
▁lifesty	-10288
经历了	-10289
你要	-10290
专业人员	-10291
▁terrible	-10292
▁accordingly	-10293
真理	-10294
lor	-10295
▁ring	-10296
▁cards	-10297
▁launched	-10298
▁但我	-10299
周围的	-10300
▁Stat	-10301
▁achievements	-10302
▁visible	-10303
创造了	-10304
nels	-10305
饮料	-10306
ographical	-10307
▁engineers	-10308
▁世界	-10309
▁orders	-10310
巴马	-10311
▁Perman	-10312
▁flows	-10313
▁temperatures	-10314
▁silence	-10315
社会的	-10316
▁chick	-10317
的人权	-10318
▁embrace	-10319
情报	-10320
很大程度上	-10321
▁Indigenous	-10322
冷却	-10323
▁poetry	-10324
尽快	-10325
驱逐	-10326
itor	-10327
中心的	-10328
▁thereby	-10329
▁intrig	-10330
益处	-10331
▁restrictions	-10332
慢性	-10333
▁ped	-10334
当今	-10335
拟订	-10336
的生物	-10337
▁exploitation	-10338
合并	-10339
户外	-10340
合作伙伴	-10341
▁organiz	-10342
热量	-10343
▁endless	-10344
▁applicable	-10345
做出贡献	-10346
▁optimal	-10347
档案	-10348
寿命	-10349
伴侣	-10350
▁diam	-10351
麦克	-10352
▁boost	-10353
▁Mrs	-10354
▁Permanent	-10355
西兰	-10356
的过程中	-10357
▁Should	-10358
▁Olymp	-10359
▁Report	-10360
▁Equ	-10361
asant	-10362
▁alleged	-10363
冬季	-10364
▁Unit	-10365
▁grateful	-10366
尊严	-10367
▁frame	-10368
在我们的	-10369
▁Work	-10370
优雅	-10371
如今	-10372
▁wire	-10373
▁controls	-10374
▁perfectly	-10375
▁rhy	-10376
共识	-10377
囚犯	-10378
暂停	-10379
▁interpretation	-10380
这两	-10381
▁worst	-10382
▁Invest	-10383
▁minimize	-10384
▁最终	-10385
eurs	-10386
大自然	-10387
▁crops	-10388
按钮	-10389
黄金	-10390
的朋友	-10391
各国政府	-10392
承受	-10393
▁unknown	-10394
▁mood	-10395
▁struck	-10396
将来	-10397
的人来说	-10398
▁schedule	-10399
信用	-10400
品质	-10401
▁plate	-10402
能在	-10403
▁platforms	-10404
劳工	-10405
▁behaviour	-10406
▁containing	-10407
▁elev	-10408
发育	-10409
▁cutting	-10410
▁diabetes	-10411
了解了	-10412
占据	-10413
▁oral	-10414
积累	-10415
今天的	-10416
ivered	-10417
▁broke	-10418
了解到	-10419
▁falling	-10420
停下来	-10421
行动的	-10422
▁timely	-10423
内在	-10424
▁privacy	-10425
▁plenty	-10426
舞台	-10427
越来越多	-10428
▁kitchen	-10429
方针	-10430
▁lung	-10431
捐款	-10432
roll	-10433
同学	-10434
送到	-10435
说什么	-10436
关系的	-10437
奖励	-10438
合理的	-10439
rich	-10440
▁Val	-10441
▁Three	-10442
其中包括	-10443
和我们	-10444
▁someday	-10445
背后	-10446
▁civilians	-10447
提及	-10448
确切	-10449
生意	-10450
ifies	-10451
▁aside	-10452
古老的	-10453
积极参与	-10454
▁chronic	-10455
▁maintained	-10456
抑制	-10457
▁dw	-10458
▁Civil	-10459
南非	-10460
▁flexibility	-10461
inent	-10462
荣誉	-10463
条件下	-10464
▁devot	-10465
▁styles	-10466
深深	-10467
how	-10468
▁composition	-10469
ham	-10470
不喜欢	-10471
▁categories	-10472
alt	-10473
发展和	-10474
▁那是	-10475
▁transformation	-10476
itate	-10477
播客	-10478
▁exhaust	-10479
▁acting	-10480
▁clinical	-10481
角落	-10482
▁nobody	-10483
mal	-10484
的时刻	-10485
▁degrees	-10486
OS	-10487
子女	-10488
▁busy	-10489
双边	-10490
▁immune	-10491
▁emphasis	-10492
日内	-10493
▁proof	-10494
▁clothing	-10495
neys	-10496
▁warning	-10497
他人的	-10498
哥伦比亚	-10499
▁pair	-10500
▁destroyed	-10501
▁水	-10502
▁stri	-10503
姐妹	-10504
玉米	-10505
▁当他们	-10506
▁friendship	-10507
拿着	-10508
激情	-10509
点的	-10510
主要是	-10511
劳动力	-10512
危害	-10513
人们的	-10514
▁writers	-10515
▁normally	-10516
can	-10517
在他的	-10518
很有	-10519
asy	-10520
▁interf	-10521
▁再	-10522
精彩	-10523
▁Millennium	-10524
▁Latin	-10525
和安全	-10526
实际上是	-10527
委会	-10528
崩溃	-10529
son	-10530
▁deploy	-10531
在这一	-10532
▁nose	-10533
▁subsid	-10534
的知识	-10535
▁weren	-10536
▁甚至	-10537
▁aband	-10538
▁trick	-10539
▁obser	-10540
▁forests	-10541
izz	-10542
如果我	-10543
▁usual	-10544
▁disorder	-10545
▁grounds	-10546
同理	-10547
▁wine	-10548
只需	-10549
幽默	-10550
股票	-10551
▁Among	-10552
▁particles	-10553
▁sections	-10554
家里	-10555
pread	-10556
▁unem	-10557
▁本文	-10558
大幅	-10559
▁Brazil	-10560
接受的	-10561
只需要	-10562
非政府组织	-10563
▁mixed	-10564
第五	-10565
▁老	-10566
▁ships	-10567
▁fluid	-10568
室内	-10569
更深入地	-10570
人们对	-10571
浪漫	-10572
加热	-10573
火山	-10574
▁Exam	-10575
性格	-10576
▁那个	-10577
日星期	-10578
▁pleasure	-10579
▁bath	-10580
curement	-10581
▁childhood	-10582
参加了	-10583
走到	-10584
▁来自	-10585
我们就	-10586
工作者	-10587
同伴	-10588
▁mir	-10589
附近的	-10590
oured	-10591
▁videos	-10592
可能会导致	-10593
▁tooth	-10594
▁deaths	-10595
▁uniform	-10596
▁index	-10597
ude	-10598
aked	-10599
和政治	-10600
▁San	-10601
▁reiter	-10602
▁decline	-10603
▁diff	-10604
▁frust	-10605
▁portion	-10606
▁23	-10607
品种	-10608
解决办法	-10609
▁toxic	-10610
学生的	-10611
启发	-10612
▁purchase	-10613
▁ru	-10614
▁investigate	-10615
弯曲	-10616
演奏	-10617
▁wondering	-10618
著名的	-10619
▁requiring	-10620
▁fishing	-10621
▁weakness	-10622
主导	-10623
▁colleagues	-10624
▁cha	-10625
astern	-10626
▁selling	-10627
强度	-10628
▁roof	-10629
与他人	-10630
任何其他	-10631
▁synt	-10632
忠诚	-10633
▁punishment	-10634
产业	-10635
更多地	-10636
这样一个	-10637
▁performing	-10638
▁aims	-10639
▁photograph	-10640
公布	-10641
展览	-10642
▁reflection	-10643
温和	-10644
▁Effect	-10645
采取了	-10646
▁ske	-10647
▁protein	-10648
ested	-10649
▁marginal	-10650
▁availability	-10651
采取措施	-10652
IL	-10653
员额	-10654
无关	-10655
死刑	-10656
▁id	-10657
atholic	-10658
lets	-10659
icon	-10660
▁steel	-10661
▁dissemin	-10662
饥饿	-10663
火灾	-10664
高等	-10665
我已经	-10666
的规定	-10667
▁safely	-10668
渠道	-10669
在这方面	-10670
▁subsequent	-10671
itz	-10672
▁mac	-10673
和社区	-10674
提供了一个	-10675
忍受	-10676
每种	-10677
将它们	-10678
巴西	-10679
让你的	-10680
▁drag	-10681
讨厌	-10682
lin	-10683
永恒	-10684
置信	-10685
自杀	-10686
▁moves	-10687
▁Av	-10688
▁anywhere	-10689
▁rehabilit	-10690
▁西	-10691
▁Pakistan	-10692
表情	-10693
itative	-10694
▁competitive	-10695
看不	-10696
▁title	-10697
英寸	-10698
的要求	-10699
的速度	-10700
▁Cor	-10701
ptions	-10702
这本书	-10703
▁disappear	-10704
▁branch	-10705
▁explanation	-10706
ker	-10707
▁Stand	-10708
目前为止	-10709
辅助	-10710
的基础上	-10711
▁Char	-10712
▁nineteen	-10713
▁thou	-10714
▁symbols	-10715
▁category	-10716
补救	-10717
▁intense	-10718
▁urged	-10719
▁YOU	-10720
这份	-10721
▁grave	-10722
▁decade	-10723
bean	-10724
更深	-10725
吸引力	-10726
▁Lastly	-10727
▁aqu	-10728
密码	-10729
一周	-10730
的个人	-10731
的精神	-10732
莉莉	-10733
跨越	-10734
▁phenomenon	-10735
法治	-10736
▁Current	-10737
▁minister	-10738
的价值	-10739
▁employed	-10740
▁evil	-10741
▁amidst	-10742
▁nutrition	-10743
这会	-10744
▁regulation	-10745
的第一	-10746
这些步骤	-10747
些什么	-10748
▁Goals	-10749
购物	-10750
▁smell	-10751
.,	-10752
▁Cy	-10753
的未来	-10754
▁Agency	-10755
▁五	-10756
▁nutrients	-10757
▁horses	-10758
▁efficiently	-10759
朝着	-10760
紧迫	-10761
包容性	-10762
▁advantages	-10763
▁科	-10764
沉浸	-10765
▁brit	-10766
名为	-10767
损坏	-10768
稍微	-10769
提示	-10770
部位	-10771
▁wearing	-10772
▁equipped	-10773
捐赠	-10774
▁listed	-10775
▁equitable	-10776
剥削	-10777
收获	-10778
骄傲	-10779
我喜欢	-10780
生育	-10781
▁producing	-10782
2002	-10783
idespread	-10784
emb	-10785
▁22	-10786
的旅程	-10787
▁Could	-10788
▁Review	-10789
▁announced	-10790
木材	-10791
转让	-10792
▁strang	-10793
▁joh	-10794
▁artificial	-10795
▁Association	-10796
去看	-10797
流感	-10798
更改	-10799
▁我只是	-10800
▁Know	-10801
▁harder	-10802
营地	-10803
gin	-10804
▁anybody	-10805
▁manufacturing	-10806
▁让我	-10807
▁我相信	-10808
like	-10809
▁occupied	-10810
竞选	-10811
▁fewer	-10812
omy	-10813
▁报告	-10814
▁torture	-10815
▁circle	-10816
▁enterprise	-10817
▁wed	-10818
comm	-10819
明确的	-10820
ictions	-10821
▁orient	-10822
信托	-10823
转移到	-10824
▁disappoint	-10825
至今	-10826
种族主义	-10827
牛奶	-10828
联系起来	-10829
体内	-10830
att	-10831
拟议	-10832
▁radiation	-10833
切割	-10834
的地	-10835
并将其	-10836
▁structural	-10837
简化	-10838
山脉	-10839
▁burden	-10840
条例	-10841
根源	-10842
▁finish	-10843
orter	-10844
▁liber	-10845
▁recruit	-10846
序列	-10847
将有助于	-10848
▁bless	-10849
▁Islamic	-10850
明显的	-10851
▁1997	-10852
▁disagree	-10853
▁我喜欢	-10854
▁mistakes	-10855
▁suppose	-10856
勒比	-10857
洪水	-10858
和国家	-10859
roat	-10860
▁algorithm	-10861
AS	-10862
▁UNIC	-10863
▁excessive	-10864
如果他们	-10865
▁productivity	-10866
的好	-10867
▁显然	-10868
▁disability	-10869
千上	-10870
被发现	-10871
▁House	-10872
▁26	-10873
▁award	-10874
不知	-10875
▁你在	-10876
▁Black	-10877
▁songs	-10878
▁resident	-10879
年以来	-10880
▁Federal	-10881
▁corporate	-10882
▁regulatory	-10883
▁restaur	-10884
雇佣	-10885
▁whis	-10886
uk	-10887
相机	-10888
▁roads	-10889
▁grace	-10890
▁smoke	-10891
▁Miss	-10892
文档	-10893
rem	-10894
omet	-10895
ouring	-10896
同性恋	-10897
▁fest	-10898
▁grade	-10899
▁programming	-10900
加深	-10901
绝望	-10902
▁1990	-10903
▁coverage	-10904
▁inspiration	-10905
私营部门	-10906
▁managers	-10907
ua	-10908
活着	-10909
▁pill	-10910
▁Offic	-10911
icide	-10912
前面	-10913
▁Year	-10914
▁District	-10915
球员	-10916
制造商	-10917
学习如何	-10918
eenth	-10919
▁approxim	-10920
的观点	-10921
agon	-10922
▁consultation	-10923
▁decor	-10924
基本的	-10925
ained	-10926
乌克兰	-10927
▁loud	-10928
民众	-10929
▁rational	-10930
rect	-10931
▁explored	-10932
的责任	-10933
▁如果我	-10934
了她	-10935
▁contracts	-10936
移除	-10937
▁erad	-10938
将于	-10939
主持	-10940
区域的	-10941
▁substances	-10942
对比	-10943
精力	-10944
▁pursue	-10945
瑞士	-10946
边境	-10947
▁John	-10948
▁satell	-10949
▁cleaning	-10950
▁healthier	-10951
▁visits	-10952
▁dignity	-10953
▁incorporate	-10954
▁rab	-10955
化学物质	-10956
▁Food	-10957
▁neut	-10958
这段	-10959
化石	-10960
▁缔约国	-10961
▁departments	-10962
是如此	-10963
▁IN	-10964
成千上	-10965
▁stands	-10966
▁California	-10967
▁ven	-10968
▁personality	-10969
友好	-10970
阴影	-10971
▁schedul	-10972
的角色	-10973
主张	-10974
▁28	-10975
▁Emb	-10976
两性	-10977
谋杀	-10978
起草	-10979
结束了	-10980
▁stations	-10981
听说	-10982
▁包括	-10983
terday	-10984
出发	-10985
▁elder	-10986
▁Nevertheless	-10987
属性	-10988
▁Coord	-10989
▁answered	-10990
▁confirm	-10991
这一问题	-10992
▁divided	-10993
▁accuracy	-10994
含量	-10995
这条	-10996
▁welfare	-10997
▁delivered	-10998
▁beneficial	-10999
肿瘤	-11000
▁cul	-11001
成千上万	-11002
▁theme	-11003
食谱	-11004
观察员	-11005
▁abroad	-11006
▁stere	-11007
▁bilateral	-11008
寒冷	-11009
▁borders	-11010
在许多	-11011
老年人	-11012
出来的	-11013
是你	-11014
但我们	-11015
▁Island	-11016
▁Britain	-11017
▁membership	-11018
bi	-11019
动的	-11020
▁disorders	-11021
▁Scient	-11022
osm	-11023
依赖于	-11024
毫无疑问	-11025
▁Regional	-11026
▁chances	-11027
▁executive	-11028
血压	-11029
▁pin	-11030
OP	-11031
▁Loc	-11032
和水	-11033
▁hopes	-11034
海军	-11035
▁brave	-11036
▁mountains	-11037
▁territories	-11038
着至关重要的作用	-11039
▁Services	-11040
▁inherent	-11041
▁storyt	-11042
▁visited	-11043
和理解	-11044
意味着什么	-11045
▁unusual	-11046
▁widespread	-11047
开车	-11048
防御	-11049
变化的	-11050
ogen	-11051
显得	-11052
▁emphasized	-11053
▁recommends	-11054
▁inclusion	-11055
35	-11056
暂时	-11057
▁empty	-11058
▁talks	-11059
apes	-11060
完善	-11061
▁UNICEF	-11062
▁suit	-11063
▁acceler	-11064
▁satisfaction	-11065
▁conclusions	-11066
▁tick	-11067
▁EU	-11068
▁safer	-11069
▁Police	-11070
实用	-11071
接种	-11072
收益	-11073
赞扬	-11074
▁entr	-11075
▁periodic	-11076
▁lit	-11077
▁Federation	-11078
▁近	-11079
监禁	-11080
▁conventional	-11081
佛罗	-11082
▁occupation	-11083
▁Science	-11084
▁productive	-11085
▁format	-11086
▁anymore	-11087
▁dedication	-11088
鸡蛋	-11089
▁mainstream	-11090
▁Author	-11091
▁runs	-11092
常驻	-11093
大使	-11094
幸存	-11095
▁Given	-11096
教导	-11097
中的一个	-11098
▁sorts	-11099
▁decrease	-11100
付款	-11101
你认为	-11102
▁ought	-11103
▁strengthened	-11104
吸烟	-11105
扩张	-11106
off	-11107
▁另一方面	-11108
▁signals	-11109
▁harvest	-11110
可怜	-11111
▁description	-11112
尼斯	-11113
的主题	-11114
▁tor	-11115
omin	-11116
▁Forum	-11117
▁conserv	-11118
基督徒	-11119
anna	-11120
▁inhabit	-11121
了几	-11122
▁taxes	-11123
搅拌	-11124
救济	-11125
赞成	-11126
的人口	-11127
的土地	-11128
▁Common	-11129
▁artist	-11130
2013	-11131
▁preferences	-11132
花朵	-11133
美好	-11134
补偿	-11135
修正案	-11136
icted	-11137
▁40	-11138
▁recyc	-11139
▁experiencing	-11140
其他地方	-11141
▁client	-11142
▁investors	-11143
▁trading	-11144
▁nu	-11145
奇怪的	-11146
篇文章	-11147
那天	-11148
2001	-11149
巴基斯坦	-11150
▁providers	-11151
同理心	-11152
筹备	-11153
的增长	-11154
▁在一个	-11155
▁Plus	-11156
▁grad	-11157
上有	-11158
汤姆	-11159
▁defe	-11160
▁presents	-11161
文献	-11162
管理和	-11163
▁Set	-11164
▁capabilities	-11165
存在于	-11166
▁但是我们	-11167
▁argue	-11168
▁recover	-11169
▁connecting	-11170
追溯	-11171
以防止	-11172
▁assume	-11173
eling	-11174
清楚地	-11175
unning	-11176
▁pregnancy	-11177
屋顶	-11178
ittees	-11179
升级	-11180
▁在这里	-11181
桌子	-11182
ste	-11183
▁horm	-11184
国籍	-11185
▁Section	-11186
▁Somal	-11187
▁bones	-11188
▁elabor	-11189
通常是	-11190
▁heaven	-11191
▁division	-11192
保护和	-11193
▁designing	-11194
▁quot	-11195
▁会议	-11196
▁simultane	-11197
我们将探讨	-11198
▁favour	-11199
印第	-11200
编程	-11201
▁hate	-11202
限度	-11203
▁seconds	-11204
喊道	-11205
▁string	-11206
▁parliament	-11207
的书	-11208
ferent	-11209
▁sanctions	-11210
的家庭	-11211
▁contributes	-11212
DC	-11213
▁所有这些	-11214
难以置信	-11215
▁Gene	-11216
里克	-11217
口腔	-11218
▁domin	-11219
▁worried	-11220
相结合	-11221
▁highlighted	-11222
迫使	-11223
▁reput	-11224
学习和	-11225
▁judgment	-11226
丧失	-11227
▁newly	-11228
▁nervous	-11229
更广泛的	-11230
心灵	-11231
的做法	-11232
▁confirmed	-11233
▁association	-11234
▁pace	-11235
▁reconcil	-11236
不用	-11237
贝尔	-11238
▁abst	-11239
▁194	-11240
▁donors	-11241
认证	-11242
▁Party	-11243
▁attain	-11244
讲习	-11245
难忘	-11246
自己和	-11247
▁forum	-11248
指数	-11249
ida	-11250
▁27	-11251
▁hell	-11252
▁Jer	-11253
ially	-11254
下了	-11255
大声	-11256
感受到	-11257
▁limitations	-11258
▁constructive	-11259
▁seemingly	-11260
日内瓦	-11261
▁Cuba	-11262
encing	-11263
▁displaced	-11264
的具体	-11265
▁enjoying	-11266
▁enormous	-11267
对该	-11268
▁entit	-11269
atural	-11270
▁plain	-11271
他们所	-11272
的态度	-11273
▁arguments	-11274
用作	-11275
推迟	-11276
▁investigations	-11277
▁fingers	-11278
ago	-11279
▁accomplish	-11280
矛盾	-11281
gia	-11282
印第安	-11283
▁tact	-11284
sts	-11285
▁safeguard	-11286
加快	-11287
简短	-11288
经典	-11289
激动人心的	-11290
来帮助	-11291
▁gaps	-11292
▁reviewed	-11293
造成了	-11294
▁fur	-11295
▁ages	-11296
当事	-11297
时尚	-11298
阶级	-11299
其中一个	-11300
what	-11301
放入	-11302
roductive	-11303
部件	-11304
ED	-11305
▁Park	-11306
▁flying	-11307
彼得	-11308
▁全球	-11309
当地的	-11310
只是一个	-11311
▁transparent	-11312
使命	-11313
病例	-11314
▁windows	-11315
▁compare	-11316
▁expressions	-11317
▁Det	-11318
▁repair	-11319
微生物	-11320
▁Cle	-11321
▁visiting	-11322
▁registration	-11323
包括在	-11324
▁Still	-11325
已被	-11326
▁voluntary	-11327
的人类	-11328
▁functioning	-11329
▁antib	-11330
的道路	-11331
▁nic	-11332
的有效	-11333
▁fib	-11334
▁Port	-11335
▁disasters	-11336
▁scenes	-11337
保守	-11338
你不能	-11339
做好准备	-11340
▁Form	-11341
▁angry	-11342
▁files	-11343
巩固	-11344
▁professor	-11345
索沃	-11346
▁distributed	-11347
▁rocks	-11348
主流	-11349
接受了	-11350
法律和	-11351
▁thoroughly	-11352
▁Sl	-11353
唯一的	-11354
以及如何	-11355
▁constraints	-11356
▁channel	-11357
▁了解	-11358
其他国家	-11359
▁duties	-11360
主要的	-11361
他们将	-11362
flow	-11363
▁委员会还	-11364
▁Care	-11365
接纳	-11366
▁equity	-11367
都必须	-11368
ushed	-11369
智力	-11370
▁episode	-11371
▁Has	-11372
沙漠	-11373
▁Find	-11374
得到的	-11375
fast	-11376
▁requirement	-11377
真实的	-11378
▁phr	-11379
▁gift	-11380
一块	-11381
▁只要	-11382
人力资源	-11383
erate	-11384
苏格兰	-11385
日在	-11386
▁losses	-11387
▁invas	-11388
加上	-11389
实质性	-11390
也将	-11391
▁treaties	-11392
花了	-11393
▁plane	-11394
▁tone	-11395
▁focuses	-11396
▁ordered	-11397
▁Lily	-11398
你有没有	-11399
▁semin	-11400
▁button	-11401
杂志	-11402
的儿童	-11403
▁gal	-11404
▁reforms	-11405
服务器	-11406
▁teen	-11407
reland	-11408
生气	-11409
ypes	-11410
▁reveal	-11411
▁investments	-11412
最重要的是	-11413
感觉到	-11414
▁tang	-11415
outs	-11416
越南	-11417
found	-11418
▁wheel	-11419
曲线	-11420
▁marvel	-11421
▁谢谢你	-11422
太太	-11423
并不总是	-11424
▁Sol	-11425
▁blocks	-11426
▁imposed	-11427
▁Put	-11428
▁branches	-11429
失踪	-11430
崇拜	-11431
毫不	-11432
的证据	-11433
▁scr	-11434
▁statistical	-11435
不是吗	-11436
▁mystery	-11437
的老	-11438
▁Timmy	-11439
住了	-11440
住宅	-11441
轻微	-11442
索马里	-11443
ander	-11444
▁tired	-11445
▁Congratulations	-11446
▁印度	-11447
▁这次	-11448
▁Syrian	-11449
的工具	-11450
ieth	-11451
▁assessments	-11452
跟随	-11453
有时会	-11454
口头	-11455
为他们	-11456
▁privile	-11457
乔治	-11458
并促进	-11459
形成的	-11460
只会	-11461
定位	-11462
慈善	-11463
历史的	-11464
▁pock	-11465
▁Foreign	-11466
短暂	-11467
▁musical	-11468
▁supplement	-11469
三角	-11470
AM	-11471
gi	-11472
aza	-11473
▁mistake	-11474
▁innoc	-11475
▁digest	-11476
了在	-11477
ulous	-11478
▁adverse	-11479
▁importantly	-11480
你现在	-11481
马克	-11482
几乎没有	-11483
ario	-11484
▁Headquarters	-11485
章节	-11486
广阔	-11487
▁accum	-11488
写的	-11489
三十	-11490
▁Mount	-11491
itual	-11492
增添	-11493
增进	-11494
议程项目	-11495
icity	-11496
或不	-11497
满了	-11498
▁Emp	-11499
▁埃	-11500
▁overs	-11501
▁theore	-11502
▁visitors	-11503
边的	-11504
▁以色列	-11505
例外	-11506
▁nom	-11507
为什么要	-11508
▁选择	-11509
▁buying	-11510
▁overse	-11511
家的	-11512
▁我很	-11513
计划署	-11514
的对话	-11515
这使得	-11516
▁Back	-11517
▁cream	-11518
▁hearts	-11519
▁mining	-11520
▁minority	-11521
心脏病	-11522
▁ther	-11523
▁emerged	-11524
▁declared	-11525
讲习班	-11526
onday	-11527
nected	-11528
夏季	-11529
的事实	-11530
▁incent	-11531
uct	-11532
一刻	-11533
▁trem	-11534
▁forming	-11535
氛围	-11536
▁mixt	-11537
▁Recogn	-11538
件事是	-11539
adian	-11540
▁gathering	-11541
突破	-11542
攸关	-11543
那就	-11544
▁Church	-11545
▁incidents	-11546
▁neuro	-11547
离开了	-11548
▁diagnosis	-11549
线性	-11550
数据的	-11551
▁congress	-11552
英格兰	-11553
ibbean	-11554
▁accounting	-11555
维和	-11556
▁anger	-11557
▁pip	-11558
面积	-11559
▁commod	-11560
▁finger	-11561
分支	-11562
▁你必须	-11563
▁pond	-11564
这个词	-11565
熟练	-11566
▁dispar	-11567
vernmental	-11568
许可证	-11569
噪音	-11570
桥梁	-11571
▁Start	-11572
通道	-11573
加勒比	-11574
field	-11575
的两	-11576
做一些	-11577
都需要	-11578
▁Op	-11579
▁Commissioner	-11580
▁falls	-11581
从一个	-11582
▁stom	-11583
▁driven	-11584
▁functional	-11585
▁que	-11586
▁analyzing	-11587
▁correctly	-11588
中的作用	-11589
传感	-11590
的存在	-11591
▁Budd	-11592
▁identification	-11593
同时也	-11594
▁agents	-11595
创业	-11596
回去	-11597
▁bell	-11598
亲密	-11599
严格的	-11600
的挑战	-11601
aria	-11602
的光	-11603
▁controvers	-11604
应该是	-11605
▁按照	-11606
抱歉	-11607
▁basics	-11608
▁mathematical	-11609
可信	-11610
有两个	-11611
▁funny	-11612
以及其他	-11613
▁reson	-11614
擅长	-11615
的许多	-11616
▁pit	-11617
并不意味着	-11618
imed	-11619
▁strike	-11620
▁capacities	-11621
▁波	-11622
ourse	-11623
▁player	-11624
night	-11625
▁attempts	-11626
▁protocol	-11627
▁speakers	-11628
抱怨	-11629
贸发	-11630
▁flexible	-11631
手臂	-11632
▁TV	-11633
持有	-11634
氧气	-11635
都很	-11636
▁AND	-11637
低于	-11638
▁lau	-11639
▁thread	-11640
▁英国	-11641
情况的	-11642
▁Trade	-11643
▁enrich	-11644
动议	-11645
新兴	-11646
▁brid	-11647
独立的	-11648
这个人	-11649
系统中	-11650
ysis	-11651
也是如此	-11652
▁ecosystems	-11653
▁parallel	-11654
▁damaged	-11655
级别	-11656
开发署	-11657
▁Technology	-11658
昨天	-11659
▁preced	-11660
icating	-11661
删除	-11662
▁exped	-11663
切实	-11664
▁Pers	-11665
变得越来越	-11666
▁approached	-11667
最小	-11668
▁经过	-11669
▁degrad	-11670
▁inequality	-11671
▁Ident	-11672
▁unders	-11673
▁reactions	-11674
工作中	-11675
▁observation	-11676
苏联	-11677
▁showc	-11678
矩阵	-11679
▁比如	-11680
▁Green	-11681
▁roy	-11682
▁revealed	-11683
容忍	-11684
氧化碳	-11685
makers	-11686
▁update	-11687
▁opposition	-11688
▁Cr	-11689
人民的	-11690
有用的	-11691
▁desert	-11692
▁qualities	-11693
警方	-11694
▁china	-11695
inction	-11696
▁robust	-11697
▁principal	-11698
▁exceed	-11699
▁choosing	-11700
严肃	-11701
▁spoken	-11702
挣扎	-11703
无需	-11704
蜜蜂	-11705
解放	-11706
▁Polit	-11707
最高法院	-11708
▁exclus	-11709
发作	-11710
干旱	-11711
无疑	-11712
▁mos	-11713
大楼	-11714
point	-11715
▁chat	-11716
ealand	-11717
场合	-11718
▁tables	-11719
▁拉	-11720
完整的	-11721
▁violent	-11722
▁高	-11723
揭示了	-11724
▁bomb	-11725
▁reinfor	-11726
▁variables	-11727
受损	-11728
▁lift	-11729
▁charged	-11730
园艺	-11731
umes	-11732
放射	-11733
ician	-11734
危险的	-11735
建筑物	-11736
问题和	-11737
▁rent	-11738
明亮	-11739
avid	-11740
▁tonight	-11741
排列	-11742
选择的	-11743
▁Land	-11744
▁picked	-11745
始于	-11746
经济增长	-11747
▁Strateg	-11748
▁pushing	-11749
▁republic	-11750
客观	-11751
可能对	-11752
▁considerations	-11753
▁discoveries	-11754
▁expanding	-11755
我也	-11756
并向	-11757
▁profit	-11758
▁proportion	-11759
rix	-11760
▁annex	-11761
▁parameters	-11762
与我们	-11763
尼西亚	-11764
在该	-11765
这种方式	-11766
▁reader	-11767
深思	-11768
和他们	-11769
herence	-11770
削弱	-11771
数千	-11772
天主教	-11773
▁Members	-11774
▁acceptance	-11775
▁covering	-11776
治疗方法	-11777
▁accused	-11778
发展中国家的	-11779
▁Parliament	-11780
相互作用	-11781
▁hind	-11782
▁亚	-11783
▁shoes	-11784
▁burning	-11785
队伍	-11786
模仿	-11787
▁treating	-11788
▁他们在	-11789
▁dishes	-11790
▁literally	-11791
志愿者	-11792
▁罗	-11793
▁UNM	-11794
▁他是	-11795
柠檬	-11796
▁ok	-11797
▁finds	-11798
▁je	-11799
▁giant	-11800
▁reviews	-11801
▁lake	-11802
的角度	-11803
▁estate	-11804
▁Ed	-11805
丽丝	-11806
洞察	-11807
▁passage	-11808
韩国	-11809
前景	-11810
听众	-11811
▁Territ	-11812
▁vessels	-11813
▁thrilling	-11814
▁generated	-11815
偏好	-11816
分为	-11817
▁wonders	-11818
顾客	-11819
成为了	-11820
欺骗	-11821
▁governing	-11822
▁Greek	-11823
▁chest	-11824
▁refused	-11825
▁我们需要	-11826
▁charges	-11827
交给	-11828
月的	-11829
▁Unt	-11830
瑞典	-11831
▁Hey	-11832
▁earthqu	-11833
▁stereot	-11834
▁lifestyle	-11835
消失了	-11836
▁UNHC	-11837
填充	-11838
骨骼	-11839
▁Tom	-11840
▁hang	-11841
▁resc	-11842
故意	-11843
透明度	-11844
行动计划	-11845
期限	-11846
传说	-11847
cel	-11848
权利的	-11849
▁stomach	-11850
此种	-11851
▁debates	-11852
不错	-11853
成人	-11854
▁UNHCR	-11855
▁drew	-11856
▁ease	-11857
▁divide	-11858
▁astron	-11859
设想	-11860
▁crowd	-11861
所说	-11862
聚会	-11863
▁谢谢	-11864
▁确保	-11865
研究和	-11866
▁Dar	-11867
同一个	-11868
▁ears	-11869
▁museum	-11870
无线	-11871
venile	-11872
兔子	-11873
让人们	-11874
▁consciousness	-11875
告诉他	-11876
证人	-11877
西部	-11878
一样的	-11879
owed	-11880
▁foss	-11881
▁somewhat	-11882
kind	-11883
cribe	-11884
▁已经	-11885
▁相反	-11886
征服	-11887
了解这些	-11888
▁deserv	-11889
▁surprised	-11890
▁北	-11891
▁ride	-11892
▁shell	-11893
▁dish	-11894
挪威	-11895
脑海	-11896
前的	-11897
▁结果	-11898
▁reproductive	-11899
斯科	-11900
各级	-11901
议定	-11902
▁tears	-11903
校园	-11904
虚构	-11905
▁Come	-11906
▁seventy	-11907
▁facility	-11908
▁instruction	-11909
▁mode	-11910
▁disputes	-11911
▁29	-11912
看起来很	-11913
▁但是在	-11914
▁bunch	-11915
主意	-11916
我觉得	-11917
的看法	-11918
越来越多的	-11919
▁rivers	-11920
分数	-11921
对自己	-11922
的空间	-11923
▁tested	-11924
▁tong	-11925
▁photos	-11926
mentation	-11927
▁几	-11928
幼儿	-11929
▁typical	-11930
▁我觉得	-11931
fts	-11932
▁dropped	-11933
▁struggling	-11934
削减	-11935
叶子	-11936
姆斯	-11937
viet	-11938
▁Life	-11939
反复	-11940
▁lean	-11941
▁appointed	-11942
以外	-11943
ibl	-11944
冲击	-11945
▁cognitive	-11946
▁UNCT	-11947
ustain	-11948
▁Force	-11949
▁yesterday	-11950
把我	-11951
▁bought	-11952
▁evident	-11953
手中	-11954
本报告	-11955
▁Lord	-11956
姿势	-11957
▁希望	-11958
▁physically	-11959
实例	-11960
bor	-11961
▁Sun	-11962
▁movies	-11963
▁fan	-11964
▁batt	-11965
▁sale	-11966
▁theories	-11967
些时候	-11968
这就是为什么	-11969
▁Histor	-11970
▁legacy	-11971
▁physics	-11972
▁interpre	-11973
▁wider	-11974
平面	-11975
▁thrive	-11976
▁sending	-11977
粒子	-11978
▁sensit	-11979
ulty	-11980
怎么做	-11981
他们没有	-11982
专家组	-11983
▁updated	-11984
上下	-11985
迁移	-11986
联络	-11987
脸上	-11988
anted	-11989
▁trials	-11990
▁Profess	-11991
och	-11992
▁advers	-11993
回归	-11994
温室	-11995
etime	-11996
▁hey	-11997
为什么不	-11998
▁begun	-11999
▁pressing	-12000
但她	-12001
▁reinforce	-12002
国防	-12003
视野	-12004
▁gear	-12005
使用了	-12006
▁我们认为	-12007
▁surprising	-12008
非常非常	-12009
▁saving	-12010
▁expanded	-12011
便宜	-12012
▁sed	-12013
远远	-12014
个人的	-12015
我们能	-12016
▁withdraw	-12017
中学	-12018
▁participated	-12019
句子	-12020
▁fool	-12021
▁Cho	-12022
▁mere	-12023
▁enterprises	-12024
大战	-12025
一定要	-12026
▁defence	-12027
▁percentage	-12028
▁suggestions	-12029
发光	-12030
共和党	-12031
▁alle	-12032
anes	-12033
iated	-12034
▁errors	-12035
▁infections	-12036
wor	-12037
▁beach	-12038
▁Washington	-12039
▁前	-12040
▁alarm	-12041
▁mathematics	-12042
天堂	-12043
▁Imp	-12044
加州	-12045
下面的	-12046
ologist	-12047
▁strive	-12048
▁爱	-12049
文化的	-12050
▁medication	-12051
实地	-12052
▁Consequently	-12053
和教育	-12054
▁usage	-12055
▁documentation	-12056
营造	-12057
▁municip	-12058
传输	-12059
设计师	-12060
▁Contin	-12061
▁borrow	-12062
▁Based	-12063
▁manifest	-12064
概率	-12065
忽略	-12066
某种程度上	-12067
每个人都能	-12068
一本	-12069
产品的	-12070
▁leaf	-12071
▁historic	-12072
▁storytelling	-12073
晚餐	-12074
▁disrupt	-12075
就不会	-12076
其中一些	-12077
▁expenses	-12078
议题	-12079
icious	-12080
▁religions	-12081
▁collecting	-12082
▁eastern	-12083
环境的	-12084
▁condem	-12085
仲裁	-12086
▁Caribbean	-12087
▁scheme	-12088
截至	-12089
基地	-12090
▁relate	-12091
▁defense	-12092
▁container	-12093
▁tackle	-12094
所谓	-12095
▁Always	-12096
定了	-12097
洞穴	-12098
zed	-12099
最重要的	-12100
▁pilot	-12101
building	-12102
▁uncover	-12103
▁Geneva	-12104
▁transactions	-12105
编织	-12106
如果您	-12107
▁格	-12108
▁Supp	-12109
港口	-12110
▁prisoners	-12111
垂直	-12112
遇到的	-12113
▁stored	-12114
▁reconst	-12115
争端	-12116
人员的	-12117
间的	-12118
▁soph	-12119
每个人都有	-12120
城堡	-12121
融资	-12122
一个小	-12123
▁London	-12124
▁什么	-12125
yd	-12126
▁gif	-12127
▁audiences	-12128
▁hide	-12129
▁2015	-12130
插入	-12131
▁理解	-12132
教徒	-12133
▁decent	-12134
▁entering	-12135
▁consistently	-12136
触摸	-12137
olf	-12138
目前的	-12139
kers	-12140
▁samples	-12141
颗粒	-12142
▁Ev	-12143
利益攸关	-12144
▁reduces	-12145
生效	-12146
拥有的	-12147
伯特	-12148
▁discl	-12149
房地	-12150
尸体	-12151
性地	-12152
▁corn	-12153
对方	-12154
公平的	-12155
▁rehabilitation	-12156
▁Disarmament	-12157
▁日本	-12158
▁blank	-12159
▁hunting	-12160
你正在	-12161
了一次	-12162
▁pulled	-12163
▁script	-12164
耶路	-12165
即使是	-12166
撒冷	-12167
并通过	-12168
▁sustained	-12169
一直是	-12170
▁crazy	-12171
放大	-12172
▁圣	-12173
▁globalization	-12174
▁1996	-12175
万人	-12176
醒来	-12177
民主党	-12178
▁owing	-12179
▁pleased	-12180
在她	-12181
热带	-12182
为您	-12183
感情	-12184
ergies	-12185
▁hotel	-12186
▁saved	-12187
▁Everyone	-12188
博客	-12189
调解	-12190
向他	-12191
我们知道	-12192
▁buck	-12193
伤口	-12194
来解决	-12195
探索这个	-12196
耶路撒冷	-12197
▁suspect	-12198
▁football	-12199
证书	-12200
▁chose	-12201
▁desp	-12202
▁curriculum	-12203
ye	-12204
了什么	-12205
ijing	-12206
首席	-12207
利的	-12208
▁legitimate	-12209
地址	-12210
清洗	-12211
▁NGOs	-12212
▁Trust	-12213
▁ethics	-12214
▁silver	-12215
▁newfound	-12216
▁除	-12217
▁determining	-12218
确立	-12219
▁vit	-12220
▁Conc	-12221
乐器	-12222
▁Assist	-12223
听到了	-12224
建立联系	-12225
和她	-12226
孤立	-12227
无人	-12228
与会者	-12229
▁owner	-12230
▁liberal	-12231
目的地	-12232
创新的	-12233
在我的	-12234
iop	-12235
▁社会	-12236
年后	-12237
和尊重	-12238
▁une	-12239
▁depr	-12240
他没有	-12241
的反应	-12242
尼日	-12243
rous	-12244
▁crew	-12245
职业生涯	-12246
▁concentration	-12247
他被	-12248
▁delicate	-12249
进一步的	-12250
闻名	-12251
▁Mark	-12252
▁autonom	-12253
▁returns	-12254
幻想	-12255
ania	-12256
inity	-12257
raine	-12258
▁opens	-12259
▁convinced	-12260
▁Vis	-12261
▁revenue	-12262
▁shelter	-12263
ationally	-12264
▁execution	-12265
缩小	-12266
波动	-12267
相连	-12268
艾滋病	-12269
自然资源	-12270
▁sheet	-12271
▁attitude	-12272
机器学习	-12273
▁veter	-12274
▁explicit	-12275
▁pride	-12276
▁constitutional	-12277
▁在此	-12278
▁subreg	-12279
海滩	-12280
的必要	-12281
真是	-12282
站起来	-12283
拉丁美洲	-12284
消极	-12285
▁acknowledge	-12286
哪种	-12287
▁wished	-12288
学会了	-12289
▁ange	-12290
肥胖	-12291
本组织	-12292
▁universities	-12293
▁我国	-12294
来实现	-12295
▁太	-12296
司机	-12297
外地	-12298
应在	-12299
电路	-12300
罪犯	-12301
表决	-12302
▁sup	-12303
nty	-12304
▁UNCTAD	-12305
ford	-12306
▁Oft	-12307
▁我们有	-12308
▁towns	-12309
六个	-12310
▁promised	-12311
骚扰	-12312
▁inher	-12313
▁injured	-12314
祝贺	-12315
500	-12316
ani	-12317
弄清楚	-12318
让我们来	-12319
▁relevance	-12320
和执行	-12321
你不	-12322
温柔	-12323
EC	-12324
▁他还	-12325
▁shouldn	-12326
▁joining	-12327
演示	-12328
妨碍	-12329
后者	-12330
asty	-12331
忘了	-12332
大胆	-12333
▁ax	-12334
接着	-12335
▁interventions	-12336
饮用	-12337
uel	-12338
动物的	-12339
▁hospitals	-12340
亲自	-12341
强壮	-12342
ads	-12343
我必须	-12344
▁trauma	-12345
和你的	-12346
▁spreading	-12347
即使在	-12348
▁biod	-12349
▁总的来说	-12350
触发	-12351
▁impr	-12352
atively	-12353
▁Following	-12354
反射	-12355
▁measured	-12356
advant	-12357
▁organizational	-12358
▁provin	-12359
▁tourism	-12360
▁bare	-12361
▁gratitude	-12362
年里	-12363
▁intercon	-12364
的地区	-12365
▁killing	-12366
▁globe	-12367
的大部分	-12368
跟着	-12369
▁john	-12370
▁lect	-12371
▁poison	-12372
交付	-12373
▁在那里	-12374
屠杀	-12375
rid	-12376
urning	-12377
▁channels	-12378
iry	-12379
▁practition	-12380
工会	-12381
▁Att	-12382
▁cosm	-12383
▁Italy	-12384
▁distract	-12385
上学	-12386
巧克	-12387
知识和	-12388
▁wishes	-12389
▁看看	-12390
查明	-12391
以及对	-12392
▁covers	-12393
▁人类	-12394
▁threatened	-12395
的文化	-12396
▁prayer	-12397
吃饭	-12398
我现在	-12399
人工智能	-12400
慷慨	-12401
▁fifth	-12402
灵活性	-12403
aud	-12404
▁adaptation	-12405
偶然	-12406
▁Di	-12407
▁donor	-12408
▁sentences	-12409
usalem	-12410
生理	-12411
▁Third	-12412
▁rhyth	-12413
▁hardly	-12414
▁Encourage	-12415
▁indicates	-12416
▁attitudes	-12417
▁violation	-12418
韧性	-12419
▁inh	-12420
▁complaints	-12421
▁navigating	-12422
的第	-12423
一起工作	-12424
▁stores	-12425
▁workshop	-12426
▁advancements	-12427
航行	-12428
▁experiments	-12429
ING	-12430
很快就	-12431
esome	-12432
公寓	-12433
▁Jam	-12434
▁Others	-12435
▁discovering	-12436
▁shaped	-12437
会对	-12438
也就是	-12439
▁fer	-12440
▁consists	-12441
的计划	-12442
hand	-12443
公共卫生	-12444
统计数据	-12445
▁evolved	-12446
故障	-12447
所有人都	-12448
▁lunch	-12449
▁convention	-12450
ignty	-12451
▁我们希望	-12452
尊敬	-12453
▁listened	-12454
人体	-12455
▁Sea	-12456
上午	-12457
就越	-12458
质量的	-12459
你自己的	-12460
悲剧	-12461
▁我现在	-12462
▁Init	-12463
▁worlds	-12464
▁illicit	-12465
▁exception	-12466
▁speaker	-12467
▁小行星	-12468
分享你的	-12469
愿景	-12470
▁incredibly	-12471
ashed	-12472
深刻的	-12473
▁Bob	-12474
▁switch	-12475
▁mixture	-12476
aded	-12477
▁sacred	-12478
▁constitute	-12479
这些故事	-12480
▁entrepreneurs	-12481
更换	-12482
很明显	-12483
rapy	-12484
▁shr	-12485
▁elsewhere	-12486
传染	-12487
▁desk	-12488
▁ninety	-12489
列出	-12490
认同	-12491
▁Integ	-12492
▁Design	-12493
▁prevail	-12494
了下来	-12495
▁advances	-12496
▁campaigns	-12497
谈到	-12498
门口	-12499
这里的	-12500
▁van	-12501
▁remov	-12502
▁reflects	-12503
的资源	-12504
icked	-12505
▁backgrounds	-12506
arks	-12507
▁blog	-12508
▁merc	-12509
也需要	-12510
▁inspiring	-12511
伴随着	-12512
▁Meeting	-12513
▁approximately	-12514
orters	-12515
▁Eastern	-12516
▁habitat	-12517
met	-12518
▁ye	-12519
gers	-12520
编码	-12521
▁60	-12522
原谅	-12523
▁sizes	-12524
▁inflamm	-12525
▁completion	-12526
集合	-12527
混合物	-12528
▁wars	-12529
咨询委员会	-12530
▁regret	-12531
理念	-12532
纳米	-12533
学习者	-12534
lights	-12535
弱势	-12536
▁yours	-12537
带你	-12538
里达	-12539
▁Ok	-12540
▁savings	-12541
▁assigned	-12542
▁Community	-12543
去做	-12544
▁Tai	-12545
易于	-12546
ek	-12547
▁Coop	-12548
▁currency	-12549
在国家	-12550
▁meditation	-12551
数目	-12552
讽刺	-12553
▁rice	-12554
▁abstract	-12555
它被	-12556
的原则	-12557
的最大	-12558
▁french	-12559
女王	-12560
联合王国	-12561
▁Imple	-12562
▁Spanish	-12563
周末	-12564
alian	-12565
▁abund	-12566
▁attach	-12567
▁restric	-12568
▁avoiding	-12569
gu	-12570
The	-12571
▁settled	-12572
任何东西	-12573
▁crack	-12574
▁stones	-12575
奉献	-12576
纪律	-12577
比以往	-12578
▁Dif	-12579
将军	-12580
就此	-12581
ola	-12582
审理	-12583
▁essence	-12584
▁procurement	-12585
▁Project	-12586
▁dismiss	-12587
▁influenced	-12588
减少了	-12589
制成的	-12590
▁centers	-12591
投诉	-12592
机遇	-12593
ouds	-12594
魅力	-12595
一座	-12596
气味	-12597
星星	-12598
▁spin	-12599
见证	-12600
工作队	-12601
ATION	-12602
▁Power	-12603
▁Sup	-12604
▁flower	-12605
▁insects	-12606
而被	-12607
▁Saf	-12608
家庭成员	-12609
wan	-12610
▁shoulder	-12611
▁discipline	-12612
▁simultaneously	-12613
旺达	-12614
政策的	-12615
传感器	-12616
远程	-12617
在过去	-12618
和平与安全	-12619
▁payments	-12620
▁195	-12621
审视	-12622
助理	-12623
定制	-12624
冬天	-12625
▁attended	-12626
意志	-12627
▁cats	-12628
▁voting	-12629
ilize	-12630
▁column	-12631
▁flavor	-12632
▁unemployment	-12633
聊天	-12634
▁toys	-12635
▁breaks	-12636
思议	-12637
黄色	-12638
▁rect	-12639
▁conqu	-12640
风景	-12641
▁Ken	-12642
▁anyway	-12643
▁refugee	-12644
对吧	-12645
强的	-12646
▁afric	-12647
▁permission	-12648
和服务	-12649
▁dependent	-12650
▁Until	-12651
▁Very	-12652
▁Were	-12653
落在	-12654
向他们	-12655
▁Building	-12656
安妮	-12657
鲍勃	-12658
▁gene	-12659
▁directed	-12660
▁conventions	-12661
也没	-12662
通讯	-12663
▁stab	-12664
▁representing	-12665
首都	-12666
不同类型的	-12667
cribed	-12668
▁compr	-12669
▁hyper	-12670
▁Islands	-12671
▁critically	-12672
▁reflecting	-12673
科索沃	-12674
▁exclud	-12675
类似于	-12676
▁freely	-12677
▁agent	-12678
lements	-12679
卢旺达	-12680
议定书	-12681
▁basket	-12682
▁nurt	-12683
我们将探索	-12684
▁influences	-12685
▁cow	-12686
▁disadvant	-12687
▁submission	-12688
的名字	-12689
▁Net	-12690
灌木	-12691
种群	-12692
▁slide	-12693
发起	-12694
现状	-12695
▁大会	-12696
CO	-12697
开支	-12698
isp	-12699
▁estimated	-12700
▁dimensions	-12701
地将	-12702
▁nod	-12703
一道	-12704
erals	-12705
▁devast	-12706
▁sovereignty	-12707
的人员	-12708
▁cultivate	-12709
▁frameworks	-12710
▁registered	-12711
的文件	-12712
▁Within	-12713
网站上	-12714
abul	-12715
▁fears	-12716
bo	-12717
▁十	-12718
遭遇	-12719
▁genes	-12720
▁persu	-12721
▁criticism	-12722
▁transmission	-12723
▁Del	-12724
▁wake	-12725
可能有	-12726
的人民	-12727
几次	-12728
原子能	-12729
本质上	-12730
侵犯人权	-12731
umin	-12732
缺点	-12733
▁disch	-12734
▁Prom	-12735
▁feeding	-12736
▁lawyers	-12737
▁Spain	-12738
▁deployment	-12739
▁如果您	-12740
▁Particip	-12741
iana	-12742
吉尔	-12743
▁sunlight	-12744
▁conferences	-12745
▁unne	-12746
▁royal	-12747
▁underm	-12748
▁Beijing	-12749
▁Aud	-12750
▁cod	-12751
▁大约	-12752
▁hob	-12753
▁observing	-12754
▁maps	-12755
法的	-12756
ilation	-12757
▁bust	-12758
▁rooms	-12759
不好	-12760
▁你是	-12761
健康状况	-12762
▁smoking	-12763
播放	-12764
▁continent	-12765
引人入胜的	-12766
▁opposed	-12767
▁Said	-12768
ushing	-12769
▁Found	-12770
▁wanna	-12771
▁这就是为什么	-12772
utors	-12773
▁thinks	-12774
焦点	-12775
克斯坦	-12776
198	-12777
不可思议	-12778
▁hazard	-12779
全球化	-12780
并鼓励	-12781
乐观	-12782
意义上	-12783
erge	-12784
▁russ	-12785
生活中的	-12786
▁grasp	-12787
▁thee	-12788
▁graphic	-12789
▁neglect	-12790
▁silent	-12791
▁revised	-12792
▁director	-12793
监察	-12794
▁Regular	-12795
▁constitution	-12796
何种	-12797
▁humor	-12798
疲劳	-12799
▁Vol	-12800
的一个重要	-12801
收到的	-12802
的城市	-12803
▁你有没有想过	-12804
形的	-12805
我不会	-12806
朋友和	-12807
▁automatically	-12808
地带	-12809
▁liver	-12810
▁mysteries	-12811
▁已	-12812
玩家	-12813
▁Time	-12814
是一名	-12815
▁uncertainty	-12816
▁loose	-12817
▁Administration	-12818
某一	-12819
▁empow	-12820
坚韧	-12821
▁非洲	-12822
▁UNF	-12823
▁holiday	-12824
公元	-12825
▁ren	-12826
▁你认为	-12827
四处	-12828
▁Often	-12829
生命的	-12830
▁angle	-12831
复兴	-12832
集中在	-12833
apse	-12834
▁nest	-12835
爵士	-12836
▁她说	-12837
▁protective	-12838
ading	-12839
▁dispute	-12840
▁pregnant	-12841
了一种	-12842
▁coastal	-12843
▁萨	-12844
个国家	-12845
rite	-12846
▁hoping	-12847
全力	-12848
可持续性	-12849
▁frequent	-12850
有所不同	-12851
▁exem	-12852
▁lens	-12853
置于	-12854
活力的	-12855
与此同时	-12856
▁Data	-12857
侦探	-12858
▁camps	-12859
和个人	-12860
礼貌	-12861
▁inject	-12862
我相信	-12863
▁Bureau	-12864
怎么办	-12865
或是	-12866
了一会儿	-12867
通常在	-12868
活动中	-12869
导师	-12870
▁kil	-12871
▁distant	-12872
etary	-12873
▁pose	-12874
▁colorful	-12875
▁mild	-12876
▁intim	-12877
▁fo	-12878
下次当你	-12879
贸发会议	-12880
▁dated	-12881
封信	-12882
imental	-12883
冷静	-12884
迄今为止	-12885
▁从前	-12886
rooms	-12887
▁Creat	-12888
操纵	-12889
熟虑	-12890
考古	-12891
▁Age	-12892
▁1995	-12893
▁bol	-12894
▁existed	-12895
▁tale	-12896
▁learners	-12897
▁hill	-12898
▁fulfil	-12899
公式	-12900
间接	-12901
▁unnecess	-12902
炎症	-12903
▁surge	-12904
再生能源	-12905
非常感谢	-12906
▁weeke	-12907
▁accurately	-12908
最新	-12909
皇家	-12910
▁babies	-12911
▁Soon	-12912
学到了	-12913
也很	-12914
▁Supreme	-12915
诊所	-12916
这两种	-12917
这些信息	-12918
▁neighbors	-12919
极为	-12920
▁seg	-12921
▁insist	-12922
▁immense	-12923
▁organize	-12924
▁route	-12925
生物学	-12926
▁gest	-12927
▁phenomena	-12928
等级	-12929
膝盖	-12930
aker	-12931
▁Ireland	-12932
▁variable	-12933
蒙特	-12934
结束后	-12935
注射	-12936
▁Sing	-12937
alysis	-12938
▁去	-12939
安保	-12940
制品	-12941
波斯	-12942
迫切	-12943
▁reprodu	-12944
压迫	-12945
根廷	-12946
肩膀	-12947
▁examined	-12948
▁艾	-12949
核准	-12950
在任何	-12951
▁package	-12952
▁combining	-12953
及其对	-12954
死亡率	-12955
▁sequence	-12956
仇恨	-12957
羽毛	-12958
协同	-12959
线条	-12960
▁loving	-12961
▁specified	-12962
▁geographical	-12963
▁Fort	-12964
▁wash	-12965
▁cryst	-12966
▁config	-12967
▁medications	-12968
▁golden	-12969
幻灯	-12970
储备	-12971
并提供	-12972
深思熟虑	-12973
批判性思维	-12974
▁islands	-12975
▁cried	-12976
▁1,	-12977
更好地了解	-12978
▁struggles	-12979
祝您	-12980
oven	-12981
ato	-12982
令人惊讶	-12983
▁Center	-12984
引擎	-12985
onia	-12986
做到了	-12987
▁prejud	-12988
促进了	-12989
▁defic	-12990
▁reconciliation	-12991
▁inhabitants	-12992
ucks	-12993
的工作人员	-12994
▁personally	-12995
国际合作	-12996
▁pand	-12997
▁instant	-12998
通往	-12999
考察	-13000
▁trail	-13001
两位	-13002
▁所以这	-13003
弹药	-13004
▁Sal	-13005
▁Lebanon	-13006
摘要	-13007
高级专员	-13008
▁别	-13009
乐队	-13010
美的	-13011
了起来	-13012
幻灯片	-13013
维持和平行动	-13014
真的是	-13015
▁conducting	-13016
极大	-13017
ENT	-13018
的话题	-13019
所以我们	-13020
▁corresponding	-13021
▁epid	-13022
▁它的	-13023
能力的	-13024
uh	-13025
▁insu	-13026
它可以	-13027
▁diplomatic	-13028
和新	-13029
▁pharm	-13030
▁evolving	-13031
▁surfaces	-13032
初级	-13033
首要	-13034
发动机	-13035
▁尤其是	-13036
▁recruitment	-13037
▁ow	-13038
对你的	-13039
给你的	-13040
研究表明	-13041
▁gate	-13042
公务	-13043
强奸	-13044
▁Li	-13045
基础上	-13046
回到了	-13047
的一天	-13048
▁ash	-13049
沿海	-13050
管理的	-13051
▁shore	-13052
可见	-13053
都将	-13054
想象力	-13055
明白了	-13056
▁priorit	-13057
因而	-13058
手册	-13059
多年来	-13060
天然气	-13061
▁Congo	-13062
中使用	-13063
▁bub	-13064
▁我们会	-13065
▁confusion	-13066
所知	-13067
树林	-13068
▁至于	-13069
▁fisher	-13070
向我们	-13071
ountered	-13072
优点	-13073
武装冲突	-13074
elf	-13075
avery	-13076
▁reaff	-13077
不如	-13078
正常的	-13079
▁victory	-13080
的大小	-13081
经历的	-13082
正在进行	-13083
克拉	-13084
著名	-13085
▁folk	-13086
▁farming	-13087
▁Sat	-13088
是一个非常	-13089
▁Exp	-13090
也许有一天	-13091
▁Viet	-13092
▁marks	-13093
方法来	-13094
耐心和	-13095
▁Bus	-13096
二氧化碳	-13097
高于	-13098
ogy	-13099
最大限度	-13100
▁dates	-13101
地质	-13102
火星	-13103
确信	-13104
通报	-13105
▁websites	-13106
ustainable	-13107
▁outstanding	-13108
注重	-13109
▁permit	-13110
▁利用	-13111
扫描	-13112
igorous	-13113
抽象	-13114
▁对我	-13115
iology	-13116
头上	-13117
也被	-13118
合成	-13119
蒂米	-13120
做一个	-13121
▁hadn	-13122
▁writer	-13123
▁trusted	-13124
▁whereas	-13125
▁explaining	-13126
尊重和	-13127
▁libr	-13128
加利	-13129
▁photo	-13130
▁solely	-13131
▁captain	-13132
不一定	-13133
▁worship	-13134
osc	-13135
其实	-13136
▁Zealand	-13137
特的	-13138
▁aer	-13139
▁resolved	-13140
▁strengths	-13141
▁encountered	-13142
▁看	-13143
▁上帝	-13144
▁smoothly	-13145
佛罗里达	-13146
▁respected	-13147
governmental	-13148
数量的	-13149
▁peers	-13150
oning	-13151
▁jack	-13152
柔软	-13153
▁lawyer	-13154
艺术品	-13155
▁fought	-13156
岁的	-13157
▁adoles	-13158
▁colour	-13159
▁colonial	-13160
▁supportive	-13161
可用的	-13162
在全球	-13163
收到了	-13164
aying	-13165
心理学	-13166
美妙	-13167
▁claimed	-13168
坚实	-13169
蛋糕	-13170
幸运的是	-13171
oxide	-13172
▁Share	-13173
▁march	-13174
▁所以你	-13175
▁indu	-13176
▁racism	-13177
到处	-13178
的成员	-13179
▁adds	-13180
onomic	-13181
担保	-13182
伊斯兰教	-13183
▁consistency	-13184
▁overwhelming	-13185
▁pled	-13186
▁chart	-13187
▁deals	-13188
▁driver	-13189
▁dental	-13190
通过了	-13191
ctic	-13192
▁adj	-13193
▁gaz	-13194
▁Action	-13195
▁Training	-13196
▁replaced	-13197
修剪	-13198
报表	-13199
▁harness	-13200
▁narrative	-13201
任何事情	-13202
▁matrix	-13203
菜肴	-13204
钻石	-13205
▁darkness	-13206
你如何	-13207
他们可能会	-13208
帽子	-13209
开了	-13210
▁inev	-13211
▁澳大利亚	-13212
▁immigration	-13213
▁Bes	-13214
给她	-13215
▁detection	-13216
▁algorithms	-13217
不适	-13218
军官	-13219
的目的	-13220
严厉	-13221
oler	-13222
作了	-13223
暴力的	-13224
如果没有	-13225
安娜	-13226
的唯一	-13227
两性平等	-13228
▁Turkey	-13229
菲律	-13230
菲律宾	-13231
▁economics	-13232
▁surroundings	-13233
利率	-13234
双手	-13235
enary	-13236
ache	-13237
▁dollar	-13238
沉积	-13239
ona	-13240
inter	-13241
▁painful	-13242
▁accompanied	-13243
▁slavery	-13244
的另一个	-13245
▁creature	-13246
口气	-13247
tic	-13248
影响到	-13249
teenth	-13250
奥运	-13251
▁ritual	-13252
般的	-13253
最近的	-13254
▁publish	-13255
▁organizing	-13256
消防	-13257
▁stuck	-13258
▁podcast	-13259
向上	-13260
特权	-13261
行事	-13262
▁lege	-13263
中被	-13264
中扮演	-13265
▁enjoyment	-13266
▁prosperity	-13267
惊人	-13268
▁但他	-13269
存在着	-13270
我应该	-13271
的结构	-13272
挑选	-13273
以一种	-13274
女性的	-13275
很快就会	-13276
▁edges	-13277
珊瑚	-13278
目录	-13279
▁ric	-13280
有意义的	-13281
▁firmly	-13282
迎接	-13283
▁combine	-13284
交叉	-13285
应急	-13286
扭曲	-13287
布鲁	-13288
▁Gaza	-13289
▁sees	-13290
▁Legal	-13291
影响力	-13292
▁Indones	-13293
▁enthusi	-13294
▁penalty	-13295
初始	-13296
年底	-13297
▁novels	-13298
狩猎	-13299
的中心	-13300
▁pup	-13301
补贴	-13302
▁skilled	-13303
▁landscapes	-13304
船长	-13305
▁有一个	-13306
▁shed	-13307
▁tank	-13308
▁kingdom	-13309
▁cooperate	-13310
orida	-13311
▁Swed	-13312
ota	-13313
没有得到	-13314
▁Old	-13315
▁holy	-13316
也不是	-13317
他们有	-13318
aret	-13319
▁headquarters	-13320
因为你	-13321
最多	-13322
肠道	-13323
▁6.	-13324
国际组织	-13325
流量	-13326
▁tender	-13327
乡村	-13328
▁psychology	-13329
提高了	-13330
▁主席	-13331
专利	-13332
唱歌	-13333
跨国	-13334
▁Native	-13335
▁moisture	-13336
▁Lab	-13337
▁migrants	-13338
有点像	-13339
▁fault	-13340
leep	-13341
干事	-13342
它们会	-13343
他们认为	-13344
几个小时	-13345
erted	-13346
▁electoral	-13347
气氛	-13348
很可能	-13349
人口基金	-13350
的设计	-13351
ilty	-13352
▁ech	-13353
世界大战	-13354
州和	-13355
巧克力	-13356
▁我们还	-13357
lined	-13358
世界各地的	-13359
授予	-13360
nam	-13361
纽带	-13362
美味的	-13363
宣言	-13364
▁measuring	-13365
提供者	-13366
付出	-13367
家具	-13368
▁controlling	-13369
▁我将	-13370
治疗师	-13371
▁Nav	-13372
▁mortality	-13373
了一份	-13374
的照片	-13375
▁twist	-13376
加沙	-13377
教科	-13378
lav	-13379
▁lying	-13380
产量	-13381
是多么	-13382
他们需要	-13383
执行情况	-13384
▁appointment	-13385
▁东	-13386
所涉	-13387
欲望	-13388
的意见	-13389
▁shadow	-13390
老鼠	-13391
给出	-13392
的标准	-13393
负面影响	-13394
更具	-13395
▁除非	-13396
作为一种	-13397
ograp	-13398
卡车	-13399
awn	-13400
▁Mic	-13401
▁Society	-13402
▁allegations	-13403
五十	-13404
巴黎	-13405
道歉	-13406
▁scat	-13407
HR	-13408
isition	-13409
▁eighty	-13410
问道	-13411
几分钟	-13412
取得成功	-13413
▁singing	-13414
▁regarded	-13415
▁designated	-13416
teg	-13417
working	-13418
▁lighting	-13419
▁南	-13420
用品	-13421
▁google	-13422
句话说	-13423
纯粹	-13424
开始吧	-13425
iscal	-13426
▁在这种情况下	-13427
urable	-13428
▁organisms	-13429
证明了	-13430
▁clouds	-13431
▁vulnerability	-13432
排斥	-13433
跳舞	-13434
▁firms	-13435
▁citizen	-13436
▁Summit	-13437
▁restore	-13438
在所有	-13439
▁Authority	-13440
上去	-13441
也要	-13442
▁Rev	-13443
▁perception	-13444
▁surrounded	-13445
ado	-13446
儿童和	-13447
很长时间	-13448
▁Ku	-13449
那个人	-13450
▁chicken	-13451
▁有一天	-13452
利益相关	-13453
acies	-13454
▁satisfied	-13455
号码	-13456
为基础	-13457
▁removal	-13458
哺乳	-13459
时间表	-13460
roph	-13461
uesday	-13462
▁invite	-13463
有毒	-13464
盯着	-13465
方法是	-13466
xual	-13467
▁integral	-13468
▁directions	-13469
几何	-13470
警惕	-13471
▁asset	-13472
权利和	-13473
▁renewed	-13474
▁replied	-13475
佛教	-13476
▁是啊	-13477
事件的	-13478
▁quantity	-13479
录音	-13480
▁brill	-13481
▁repeat	-13482
▁emphasize	-13483
▁advocacy	-13484
▁score	-13485
▁acceptable	-13486
代谢	-13487
共鸣	-13488
▁notion	-13489
▁History	-13490
顺便	-13491
对这个	-13492
▁holes	-13493
▁可能	-13494
▁manual	-13495
▁measurement	-13496
尴尬	-13497
▁systematic	-13498
▁coat	-13499
可以从	-13500
embered	-13501
riminal	-13502
▁Includ	-13503
ceptions	-13504
osh	-13505
▁audio	-13506
▁lingu	-13507
不像	-13508
▁Uk	-13509
▁VI	-13510
建设和平	-13511
▁attending	-13512
▁rejected	-13513
ras	-13514
均衡	-13515
座位	-13516
▁我说	-13517
▁literacy	-13518
整理	-13519
解除	-13520
riting	-13521
ulture	-13522
isons	-13523
▁bowl	-13524
EA	-13525
这在	-13526
▁perceived	-13527
蒸汽	-13528
所说的	-13529
日记	-13530
ersonal	-13531
起着	-13532
▁retire	-13533
之上	-13534
得更	-13535
解读	-13536
atoes	-13537
一个新的	-13538
▁solidarity	-13539
后勤	-13540
白天	-13541
bra	-13542
大学的	-13543
移植	-13544
开始的	-13545
联系在一起	-13546
▁经济	-13547
▁我们要	-13548
字符	-13549
库存	-13550
政府间	-13551
▁Obs	-13552
▁scheduled	-13553
床上	-13554
案文	-13555
的措施	-13556
▁advocate	-13557
点燃	-13558
错了	-13559
被告知	-13560
ursday	-13561
▁expressing	-13562
一体	-13563
深入研究	-13564
客人	-13565
在他们的	-13566
▁Colle	-13567
听到的	-13568
的危险	-13569
▁mothers	-13570
▁Chairman	-13571
爱好者	-13572
▁Policy	-13573
入口	-13574
密度	-13575
▁我们现在	-13576
动脉	-13577
iol	-13578
▁prime	-13579
并保持	-13580
▁circuit	-13581
压缩	-13582
程度的	-13583
reet	-13584
▁estimates	-13585
说一	-13586
女童	-13587
adequ	-13588
使他	-13589
教程	-13590
▁Nig	-13591
理解这些	-13592
▁mastering	-13593
ovo	-13594
漂亮的	-13595
而闻名	-13596
▁resid	-13597
▁liked	-13598
▁Learning	-13599
查询	-13600
学校的	-13601
▁buried	-13602
▁follows	-13603
▁recording	-13604
▁coordinated	-13605
cle	-13606
▁las	-13607
包裹	-13608
并发	-13609
动荡	-13610
chers	-13611
▁divine	-13612
▁UNID	-13613
▁伊	-13614
产权	-13615
化学品	-13616
你知道吗	-13617
▁cyber	-13618
▁weird	-13619
▁特	-13620
头部	-13621
猜测	-13622
换句话说	-13623
想起	-13624
▁欧洲	-13625
管理局	-13626
▁Met	-13627
▁Pop	-13628
▁anth	-13629
▁acquired	-13630
学到	-13631
可以为	-13632
单个	-13633
她会	-13634
rons	-13635
▁fraud	-13636
死去	-13637
▁plus	-13638
终止	-13639
▁honey	-13640
▁complexities	-13641
▁somehow	-13642
▁loyal	-13643
▁deepen	-13644
▁athletes	-13645
▁separation	-13646
的语言	-13647
不那么	-13648
▁interconnected	-13649
ST	-13650
▁Give	-13651
▁paths	-13652
▁mechanical	-13653
▁Indust	-13654
▁不幸的是	-13655
世纪的	-13656
强有力的	-13657
开发计划署	-13658
rics	-13659
负责任的	-13660
▁各国	-13661
▁非常感谢	-13662
▁campus	-13663
这只是	-13664
▁transformed	-13665
外观	-13666
othe	-13667
最大限度地	-13668
模块	-13669
废除	-13670
节点	-13671
骨头	-13672
向下	-13673
▁它还	-13674
故事的	-13675
idity	-13676
▁Little	-13677
▁calculate	-13678
缅甸	-13679
▁考虑到	-13680
▁witnesses	-13681
克萨斯	-13682
▁dent	-13683
▁Ult	-13684
北极	-13685
随之	-13686
感官	-13687
ctor	-13688
▁intens	-13689
▁renewable	-13690
短缺	-13691
▁Mad	-13692
inery	-13693
▁juvenile	-13694
assment	-13695
▁tremend	-13696
牢固	-13697
患者的	-13698
▁remembered	-13699
▁PR	-13700
的代表	-13701
规律	-13702
与他们	-13703
自然的	-13704
▁tut	-13705
▁vaccine	-13706
▁estimate	-13707
▁protest	-13708
▁Northern	-13709
举行了	-13710
eries	-13711
▁一位	-13712
电流	-13713
▁entertainment	-13714
和无	-13715
赞助	-13716
把他们	-13717
arios	-13718
▁emerge	-13719
▁varying	-13720
▁Christmas	-13721
▁Cre	-13722
▁Resp	-13723
▁pron	-13724
各种各样的	-13725
▁sunny	-13726
难道	-13727
▁array	-13728
▁elderly	-13729
▁diamond	-13730
▁我没有	-13731
简要	-13732
雇员	-13733
可以让	-13734
北京	-13735
▁sod	-13736
west	-13737
▁inflation	-13738
复活	-13739
▁fright	-13740
▁beloved	-13741
▁mysterious	-13742
▁extension	-13743
衰退	-13744
告诉他们	-13745
需要在	-13746
▁derived	-13747
能否	-13748
▁Chief	-13749
▁electron	-13750
▁biodiversity	-13751
层的	-13752
恒星	-13753
的吗	-13754
▁employee	-13755
omed	-13756
▁Alice	-13757
▁label	-13758
供资	-13759
泰国	-13760
和资源	-13761
▁shares	-13762
正当	-13763
源于	-13764
筹资	-13765
性别平等	-13766
缺少	-13767
开始时	-13768
▁White	-13769
▁arrested	-13770
斯拉	-13771
逃离	-13772
追溯到	-13773
▁infected	-13774
工发	-13775
数额	-13776
2014	-13777
▁Kos	-13778
▁warming	-13779
▁Tre	-13780
着重	-13781
要做	-13782
你想要	-13783
▁superior	-13784
出版物	-13785
▁logic	-13786
午餐	-13787
抬起	-13788
oir	-13789
以帮助	-13790
apping	-13791
▁hem	-13792
▁undertake	-13793
受影响	-13794
▁urg	-13795
不舒服	-13796
房地产	-13797
法和	-13798
瑜伽	-13799
一会儿	-13800
相关性	-13801
▁UK	-13802
itter	-13803
artial	-13804
▁relie	-13805
协调员	-13806
甚至是	-13807
▁coc	-13808
我们认为	-13809
▁shopping	-13810
的运动	-13811
olly	-13812
▁recre	-13813
▁crises	-13814
上涨	-13815
变暖	-13816
真菌	-13817
irable	-13818
▁empire	-13819
你说	-13820
▁grows	-13821
或在	-13822
uts	-13823
派对	-13824
▁几乎	-13825
▁contrary	-13826
多久	-13827
▁rarely	-13828
▁alternatives	-13829
可再生能源	-13830
▁Incre	-13831
hou	-13832
▁x	-13833
等因素	-13834
rick	-13835
▁Trad	-13836
和大	-13837
西洋	-13838
哥哥	-13839
特别的	-13840
你也可以	-13841
▁aest	-13842
音频	-13843
任何时候都	-13844
▁drain	-13845
▁Secretary	-13846
gs	-13847
之外的	-13848
难民署	-13849
第二天	-13850
▁Discuss	-13851
▁minorities	-13852
金额	-13853
▁Anne	-13854
▁bold	-13855
▁urge	-13856
▁Rather	-13857
尔特	-13858
期的	-13859
几十年	-13860
▁ultimate	-13861
以促进	-13862
▁suspend	-13863
▁Ret	-13864
路易	-13865
▁Adv	-13866
▁Mary	-13867
民主共和国	-13868
最不发达国家	-13869
▁Benny	-13870
不可避免	-13871
▁expenditure	-13872
活动和	-13873
▁magnetic	-13874
▁confront	-13875
▁competent	-13876
▁hunger	-13877
本土	-13878
▁在这一	-13879
▁没有人	-13880
▁dying	-13881
第六	-13882
▁fees	-13883
福祉	-13884
仅仅是	-13885
时代的	-13886
▁dilig	-13887
▁champ	-13888
安置	-13889
points	-13890
▁promotes	-13891
杀害	-13892
可行	-13893
这么说	-13894
盒子	-13895
丹麦	-13896
lete	-13897
▁comparison	-13898
一片	-13899
祝福	-13900
笔记本	-13901
较小的	-13902
下载	-13903
的理由	-13904
▁Long	-13905
▁denied	-13906
▁proven	-13907
▁联	-13908
灯光	-13909
▁assembly	-13910
书中	-13911
▁Ap	-13912
▁insufficient	-13913
观测	-13914
nesday	-13915
提到了	-13916
▁fallen	-13917
商定	-13918
春天	-13919
数据集	-13920
▁selecting	-13921
等于	-13922
更广泛	-13923
健康问题	-13924
很久以前	-13925
▁perse	-13926
▁certific	-13927
墙壁	-13928
腺癌	-13929
似乎是	-13930
▁harsh	-13931
▁binding	-13932
维修	-13933
企业家	-13934
▁mira	-13935
ucking	-13936
▁equival	-13937
把这个	-13938
目标的	-13939
onic	-13940
▁gravity	-13941
向我	-13942
把你	-13943
只想	-13944
封锁	-13945
血糖	-13946
现在是	-13947
▁contents	-13948
奥斯	-13949
十九	-13950
尼亚州	-13951
▁Proper	-13952
▁destination	-13953
寻求帮助	-13954
▁breathe	-13955
▁unnecessary	-13956
的资料	-13957
自然灾害	-13958
▁formula	-13959
这项工作	-13960
▁summar	-13961
更喜欢	-13962
▁feas	-13963
▁lists	-13964
▁considers	-13965
裁谈	-13966
▁很多	-13967
▁anxious	-13968
ann	-13969
愉快的	-13970
我不能	-13971
有责任	-13972
▁Six	-13973
▁chocol	-13974
解释了	-13975
▁linear	-13976
▁returning	-13977
渗透	-13978
行走	-13979
▁Ut	-13980
居住在	-13981
▁surely	-13982
可以被	-13983
▁cav	-13984
聚集在一起	-13985
▁amendment	-13986
并使	-13987
共同的	-13988
iliar	-13989
teries	-13990
▁shock	-13991
▁murder	-13992
▁scenarios	-13993
渔业	-13994
颤抖	-13995
▁过去	-13996
▁guilty	-13997
▁fairness	-13998
现行	-13999
的社区	-14000
▁sail	-14001
▁compromise	-14002
散步	-14003
欺诈	-14004
▁imprison	-14005
▁searching	-14006
▁在他	-14007
▁robot	-14008
替换	-14009
▁Ste	-14010
使用这些	-14011
▁creations	-14012
做了什么	-14013
▁Object	-14014
▁Constitution	-14015
▁特别	-14016
▁dramatic	-14017
几种	-14018
百分之	-14019
捍卫	-14020
▁至少	-14021
▁如今	-14022
美元的	-14023
etics	-14024
▁kiss	-14025
▁Learn	-14026
▁parad	-14027
▁Prosec	-14028
▁Somalia	-14029
头痛	-14030
放下	-14031
研究中	-14032
uests	-14033
▁Impro	-14034
▁brains	-14035
教义	-14036
把自己	-14037
首脑会议	-14038
▁calend	-14039
名义	-14040
那里的	-14041
unate	-14042
后续	-14043
▁我已经	-14044
▁spots	-14045
不妨	-14046
你的身体	-14047
▁arrive	-14048
恭喜	-14049
▁你想	-14050
▁embar	-14051
▁applies	-14052
其在	-14053
教育的	-14054
ancial	-14055
三年	-14056
arer	-14057
塞俄	-14058
和有	-14059
▁clock	-14060
▁magaz	-14061
▁versus	-14062
国外	-14063
▁resum	-14064
热的	-14065
去哪里	-14066
这可能会	-14067
▁fate	-14068
就是这样	-14069
塞拉	-14070
指责	-14071
豁免	-14072
威尔士	-14073
没有被	-14074
▁internationally	-14075
意想	-14076
塞俄比亚	-14077
开始在	-14078
▁province	-14079
将使	-14080
▁Hell	-14081
保密	-14082
▁separated	-14083
不变	-14084
arn	-14085
▁qualified	-14086
以此	-14087
是一位	-14088
▁安理会	-14089
▁tracking	-14090
▁interviews	-14091
惊喜	-14092
鼻子	-14093
▁儿童	-14094
aph	-14095
达尔富	-14096
▁educators	-14097
▁intriguing	-14098
▁Que	-14099
健身	-14100
在内	-14101
秒钟	-14102
▁defect	-14103
一套	-14104
解释说	-14105
stone	-14106
▁suicide	-14107
▁removing	-14108
的一般	-14109
▁Catholic	-14110
殖民地	-14111
▁HIV	-14112
就业机会	-14113
▁politicians	-14114
▁transferred	-14115
核查	-14116
▁Taking	-14117
▁weapon	-14118
▁descript	-14119
▁announce	-14120
家中	-14121
及其他	-14122
可以是	-14123
owing	-14124
▁films	-14125
▁traveling	-14126
回事	-14127
使用它	-14128
ieties	-14129
▁filter	-14130
▁adjustments	-14131
棒了	-14132
完成的	-14133
以及它们	-14134
▁uncomfort	-14135
▁妇女	-14136
▁自从	-14137
▁shoulders	-14138
动画	-14139
必要时	-14140
ette	-14141
对人类	-14142
他们可能	-14143
▁Arch	-14144
▁fever	-14145
▁eleven	-14146
▁steady	-14147
▁Recognizing	-14148
线的	-14149
和学习	-14150
asses	-14151
市场的	-14152
饼干	-14153
▁british	-14154
途中	-14155
pie	-14156
的动物	-14157
仍然存在	-14158
▁outbre	-14159
药品	-14160
转型	-14161
▁1994	-14162
▁irrit	-14163
夫妇	-14164
这很	-14165
▁fosters	-14166
奶酪	-14167
▁download	-14168
伸出	-14169
▁lips	-14170
▁compelling	-14171
纸张	-14172
刑事司法	-14173
▁identities	-14174
想象的	-14175
▁diving	-14176
听取	-14177
▁stir	-14178
▁Modern	-14179
了我们的	-14180
▁lovely	-14181
▁neural	-14182
▁oversight	-14183
一百	-14184
的认识	-14185
economic	-14186
火焰	-14187
跑步	-14188
▁inadequ	-14189
emed	-14190
海上	-14191
kin	-14192
▁Bal	-14193
▁scan	-14194
▁Financial	-14195
我和	-14196
方案和	-14197
暴力行为	-14198
ena	-14199
▁missed	-14200
之类	-14201
的迹象	-14202
pace	-14203
▁imagined	-14204
接触到	-14205
▁对我来说	-14206
▁pounds	-14207
的最新	-14208
这方面的	-14209
▁mold	-14210
▁tape	-14211
▁reply	-14212
▁trave	-14213
业绩	-14214
▁gram	-14215
的指导	-14216
所面临的	-14217
▁puts	-14218
早晨	-14219
的合作	-14220
能力和	-14221
这有助于	-14222
▁liberty	-14223
▁gifts	-14224
▁gains	-14225
▁pursuing	-14226
▁consequence	-14227
听力	-14228
▁cabin	-14229
离婚	-14230
别人的	-14231
和建议	-14232
▁freedoms	-14233
▁Environmental	-14234
▁好	-14235
写下	-14236
拖延	-14237
材料的	-14238
▁Hait	-14239
▁cuts	-14240
▁gh	-14241
百分比	-14242
▁filling	-14243
卡罗	-14244
王子	-14245
受欢迎的	-14246
aul	-14247
▁yog	-14248
▁UNIDO	-14249
▁biology	-14250
▁reputation	-14251
▁accountable	-14252
▁allev	-14253
▁forgotten	-14254
谷物	-14255
▁Cap	-14256
▁belonging	-14257
▁declaration	-14258
▁realization	-14259
时机	-14260
▁tailored	-14261
面部	-14262
骑士	-14263
1999	-14264
▁sleeping	-14265
房子里	-14266
刚才	-14267
▁steam	-14268
▁christian	-14269
在大	-14270
或缺	-14271
玫瑰	-14272
船上	-14273
但没有	-14274
▁civilization	-14275
运动的	-14276
陌生人	-14277
race	-14278
▁Joint	-14279
▁factory	-14280
作出了	-14281
▁acknowledged	-14282
cher	-14283
▁Upon	-14284
短语	-14285
食材	-14286
这种方法	-14287
▁Place	-14288
▁flash	-14289
▁subtle	-14290
▁Cooperation	-14291
成效	-14292
ghed	-14293
▁Ang	-14294
以确定	-14295
ethe	-14296
▁一般	-14297
我们没有	-14298
heast	-14299
深处	-14300
▁satellite	-14301
▁preservation	-14302
流行病	-14303
解决问题	-14304
▁arrangement	-14305
▁nit	-14306
乘客	-14307
是很	-14308
模板	-14309
▁transit	-14310
三种	-14311
利比	-14312
着手	-14313
通过的	-14314
▁captured	-14315
▁equation	-14316
oors	-14317
EM	-14318
CA	-14319
aws	-14320
▁sau	-14321
▁tip	-14322
iferation	-14323
纪录	-14324
麻醉	-14325
▁fiscal	-14326
▁crafting	-14327
▁laughter	-14328
建立在	-14329
ceans	-14330
▁trium	-14331
▁probability	-14332
保罗	-14333
▁caring	-14334
▁practitioners	-14335
不了	-14336
民事	-14337
▁americans	-14338
它还	-14339
是为	-14340
anz	-14341
▁innocent	-14342
▁allocation	-14343
视力	-14344
糟糕的	-14345
▁dece	-14346
▁marry	-14347
▁ancestors	-14348
包围	-14349
abulary	-14350
▁amongst	-14351
▁entitled	-14352
▁essay	-14353
▁Criminal	-14354
中发挥	-14355
▁parks	-14356
▁Besides	-14357
bl	-14358
的经验	-14359
exts	-14360
▁stamp	-14361
▁habitats	-14362
36	-14363
不幸	-14364
也不能	-14365
fish	-14366
▁contexts	-14367
威特	-14368
政权	-14369
做些什么	-14370
▁nerve	-14371
▁comprehe	-14372
镇上	-14373
▁loan	-14374
▁Check	-14375
▁workplace	-14376
侵蚀	-14377
抑郁症	-14378
ropical	-14379
▁profile	-14380
▁thoughtful	-14381
十八	-14382
了一系列	-14383
早餐	-14384
▁Space	-14385
▁intensity	-14386
知情	-14387
者在	-14388
的复杂	-14389
用它	-14390
窗口	-14391
▁Vir	-14392
▁弗	-14393
比利	-14394
福音	-14395
语文	-14396
▁gods	-14397
宁静	-14398
月球	-14399
▁domain	-14400
▁interactive	-14401
街上	-14402
闪烁	-14403
▁有关	-14404
▁desper	-14405
延迟	-14406
onents	-14407
▁alter	-14408
iasm	-14409
▁associations	-14410
▁哦	-14411
天使	-14412
葡萄酒	-14413
▁comprehension	-14414
月亮	-14415
全新的	-14416
继续前进	-14417
▁Sign	-14418
▁给	-14419
恶劣	-14420
而在	-14421
丢失	-14422
▁symp	-14423
▁divor	-14424
丽莎	-14425
树枝	-14426
了自己的	-14427
提起	-14428
▁然后他	-14429
尼日利亚	-14430
谁知道呢	-14431
▁Const	-14432
▁overview	-14433
喜悦	-14434
填补	-14435
较少	-14436
rior	-14437
▁brush	-14438
▁translation	-14439
born	-14440
▁motivation	-14441
妥协	-14442
言语	-14443
▁tongue	-14444
▁wherever	-14445
▁valley	-14446
▁以下	-14447
▁Applic	-14448
▁Kosovo	-14449
目前正在	-14450
▁highlights	-14451
▁laboratory	-14452
布尔	-14453
▁Rw	-14454
的范围	-14455
▁closing	-14456
▁coordinate	-14457
粉丝	-14458
导致的	-14459
快乐的	-14460
▁necessity	-14461
获胜	-14462
▁investing	-14463
目光	-14464
知道的	-14465
▁rig	-14466
▁entity	-14467
▁ecological	-14468
任期	-14469
你自己	-14470
和区域	-14471
▁cub	-14472
▁bottle	-14473
宝藏	-14474
老人	-14475
面上	-14476
acts	-14477
▁UNFPA	-14478
▁composed	-14479
看作	-14480
▁classic	-14481
波兰	-14482
▁toy	-14483
▁appreciated	-14484
▁hal	-14485
▁upset	-14486
不幸的是	-14487
▁apparently	-14488
▁Mat	-14489
▁remedies	-14490
▁在整个	-14491
北方	-14492
itzer	-14493
▁这是一种	-14494
▁minerals	-14495
▁vig	-14496
▁cruel	-14497
▁conclude	-14498
代替	-14499
参议院	-14500
eared	-14501
▁Test	-14502
▁但是他们	-14503
▁loans	-14504
▁server	-14505
▁Operations	-14506
是他	-14507
通用	-14508
▁hasn	-14509
光明	-14510
▁accidents	-14511
显示了	-14512
▁curve	-14513
▁meets	-14514
▁人	-14515
躺在	-14516
你最喜欢的	-14517
副本	-14518
把这些	-14519
的人数	-14520
信托基金	-14521
这可能是	-14522
▁cheap	-14523
▁Early	-14524
▁computing	-14525
▁tolerance	-14526
与之	-14527
不可能的	-14528
▁seam	-14529
▁realistic	-14530
制作的	-14531
▁Argent	-14532
▁propag	-14533
▁classmates	-14534
才会	-14535
抵达	-14536
奥巴马	-14537
被用来	-14538
iological	-14539
的颜色	-14540
▁Friday	-14541
服从	-14542
▁Buddh	-14543
▁originally	-14544
开启	-14545
▁Ext	-14546
瞬间	-14547
人们在	-14548
是这样	-14549
uated	-14550
▁preferred	-14551
所未	-14552
▁turb	-14553
▁brothers	-14554
▁compound	-14555
啤酒	-14556
让自己	-14557
适应性	-14558
▁irre	-14559
▁我们已经	-14560
CE	-14561
片段	-14562
只是在	-14563
bled	-14564
▁jer	-14565
▁bags	-14566
兽医	-14567
厚的	-14568
段落	-14569
世界中	-14570
建立的	-14571
▁inches	-14572
▁register	-14573
与你	-14574
ora	-14575
许多其他	-14576
▁Sure	-14577
▁mandates	-14578
▁photography	-14579
信贷	-14580
嘲笑	-14581
隐藏的	-14582
▁Much	-14583
▁College	-14584
不懈	-14585
matic	-14586
▁wooden	-14587
的眼睛	-14588
▁Number	-14589
▁guests	-14590
▁swimming	-14591
▁Nothing	-14592
▁describes	-14593
▁德	-14594
▁addiction	-14595
人心	-14596
自由的	-14597
▁Turk	-14598
▁于是	-14599
▁应该	-14600
退出	-14601
最初的	-14602
▁dealt	-14603
▁scared	-14604
▁liability	-14605
探测	-14606
量子	-14607
▁lob	-14608
▁duration	-14609
▁tensions	-14610
▁Family	-14611
▁heroes	-14612
▁newspaper	-14613
口袋	-14614
了这一	-14615
已成为	-14616
工作和	-14617
irty	-14618
▁persistent	-14619
摩洛	-14620
还有其他	-14621
▁Jack	-14622
▁queen	-14623
▁produces	-14624
▁enthusiasm	-14625
镜头	-14626
▁fet	-14627
▁apple	-14628
▁stroke	-14629
地在	-14630
▁Political	-14631
▁accessibility	-14632
混凝	-14633
▁Tem	-14634
▁nationality	-14635
东部	-14636
飓风	-14637
iatric	-14638
ami	-14639
▁但它	-14640
不是一个	-14641
战士	-14642
bert	-14643
处境	-14644
▁combating	-14645
差别	-14646
▁prosecution	-14647
自主	-14648
▁Coll	-14649
哲学家	-14650
最后一个	-14651
▁intr	-14652
▁Business	-14653
效力	-14654
IF	-14655
otton	-14656
▁deterior	-14657
▁凯	-14658
▁revol	-14659
▁assumptions	-14660
▁gray	-14661
▁metab	-14662
▁stayed	-14663
为他	-14664
任意	-14665
假装	-14666
地雷	-14667
我们能够	-14668
可以看到	-14669
▁bench	-14670
▁pushed	-14671
避难	-14672
▁提供	-14673
rape	-14674
▁stimul	-14675
探讨了	-14676
少数群体	-14677
已经成为	-14678
裁军谈判	-14679
▁murd	-14680
urches	-14681
▁Whatever	-14682
▁Fif	-14683
经济和社会	-14684
acco	-14685
本人	-14686
wait	-14687
▁correl	-14688
改造	-14689
▁人权	-14690
抗生素	-14691
▁uncomfortable	-14692
以其	-14693
storm	-14694
俄罗斯联邦	-14695
▁我有	-14696
网页	-14697
技术援助	-14698
▁Stay	-14699
icular	-14700
蔓延	-14701
逃跑	-14702
的独特	-14703
▁Move	-14704
acc	-14705
▁dow	-14706
▁legally	-14707
▁fed	-14708
▁Especially	-14709
▁mes	-14710
▁blend	-14711
▁awesome	-14712
激光	-14713
约会	-14714
▁Tell	-14715
▁rolling	-14716
fol	-14717
▁misunder	-14718
▁teachings	-14719
▁transaction	-14720
▁gardens	-14721
的传统	-14722
▁posed	-14723
▁candidate	-14724
▁acknowledging	-14725
imal	-14726
两周	-14727
▁我也	-14728
我需要	-14729
▁tube	-14730
▁magnific	-14731
▁integrating	-14732
▁Christianity	-14733
工作场所	-14734
▁Sudden	-14735
▁furniture	-14736
五年	-14737
所能	-14738
▁而不是	-14739
▁cope	-14740
▁尽管如此	-14741
▁disposal	-14742
▁Bay	-14743
▁他们会	-14744
mony	-14745
密切合作	-14746
▁fires	-14747
招聘	-14748
雕刻	-14749
▁employers	-14750
是由于	-14751
认为这是	-14752
回来了	-14753
▁假设	-14754
▁isolated	-14755
城市的	-14756
▁Max	-14757
开采	-14758
脱离	-14759
和精神	-14760
▁cluster	-14761
▁reminder	-14762
▁committees	-14763
▁arrival	-14764
停车	-14765
lantic	-14766
▁coordin	-14767
▁subsequently	-14768
会产生	-14769
▁comply	-14770
可在	-14771
sters	-14772
▁shame	-14773
▁traits	-14774
▁Southern	-14775
撰写	-14776
▁charm	-14777
▁molecules	-14778
sis	-14779
ulpt	-14780
剂量	-14781
▁lifetime	-14782
广场	-14783
期待着	-14784
▁heal	-14785
钥匙	-14786
nia	-14787
不当	-14788
▁Monday	-14789
一遍	-14790
每月	-14791
▁主要	-14792
▁你是否	-14793
倾斜	-14794
合格	-14795
山谷	-14796
的因素	-14797
▁advertising	-14798
有力	-14799
空白	-14800
世代	-14801
得很好	-14802
硬币	-14803
▁Jews	-14804
tt	-14805
omic	-14806
▁UNO	-14807
利比里亚	-14808
▁Control	-14809
▁devoted	-14810
▁Jerusalem	-14811
的教育	-14812
▁整个	-14813
lick	-14814
▁hast	-14815
▁surveys	-14816
hi	-14817
它对	-14818
构成了	-14819
预防措施	-14820
马尔	-14821
▁Bang	-14822
rome	-14823
▁preval	-14824
指令	-14825
分析和	-14826
或者在	-14827
感到非常	-14828
▁horr	-14829
▁breakfast	-14830
▁variations	-14831
侧重	-14832
▁owned	-14833
▁eighteen	-14834
世界上最	-14835
▁Energy	-14836
不对	-14837
不可或缺	-14838
以避免	-14839
提醒我们	-14840
究竟	-14841
连接到	-14842
破产	-14843
赞同	-14844
取得进展	-14845
anting	-14846
不多	-14847
六个月	-14848
该区域	-14849
分割	-14850
▁Phys	-14851
▁grid	-14852
▁carries	-14853
▁来	-14854
框架内	-14855
观察到	-14856
新西兰	-14857
的压力	-14858
▁Occ	-14859
cipl	-14860
▁triumph	-14861
▁Palestine	-14862
▁greenhouse	-14863
一组	-14864
一部	-14865
击中	-14866
混凝土	-14867
的产品	-14868
anta	-14869
这些都是	-14870
▁两个	-14871
又一次	-14872
▁Lake	-14873
▁differ	-14874
嘴唇	-14875
ouses	-14876
▁stereotypes	-14877
不到的	-14878
摩洛哥	-14879
illy	-14880
▁ending	-14881
▁strain	-14882
披露	-14883
数十	-14884
贩卖	-14885
▁photographs	-14886
一些东西	-14887
▁weekend	-14888
▁occasions	-14889
爱丽丝	-14890
umbled	-14891
▁encomp	-14892
及社会	-14893
▁Comb	-14894
▁temple	-14895
领先	-14896
alling	-14897
▁crown	-14898
的电	-14899
虚假	-14900
▁后来	-14901
到来的	-14902
家庭暴力	-14903
▁tire	-14904
▁bridges	-14905
当她	-14906
说他	-14907
▁uncon	-14908
具体的	-14909
副作用	-14910
圣诞节	-14911
▁flavors	-14912
匆忙	-14913
媒介	-14914
▁radical	-14915
▁initiated	-14916
成瘾	-14917
的增加	-14918
▁fiber	-14919
▁spirits	-14920
▁indirect	-14921
心中	-14922
任何人都	-14923
▁boxes	-14924
▁honour	-14925
liminary	-14926
两名	-14927
走出	-14928
▁funded	-14929
尽的	-14930
颁布	-14931
影响了	-14932
储蓄	-14933
▁Bre	-14934
security	-14935
▁shooting	-14936
▁会	-14937
普查	-14938
转折	-14939
每一次	-14940
武器和	-14941
肯尼亚	-14942
▁有些人	-14943
▁feat	-14944
▁chocolate	-14945
▁Az	-14946
▁Kuwait	-14947
48	-14948
中断	-14949
族裔	-14950
▁tapest	-14951
迈克	-14952
进了	-14953
▁checking	-14954
和在	-14955
因其	-14956
▁relatives	-14957
宝宝	-14958
点头	-14959
剩余	-14960
重大的	-14961
▁trace	-14962
illance	-14963
总理	-14964
▁保持	-14965
ormal	-14966
▁immers	-14967
▁reminded	-14968
▁theoretical	-14969
理性	-14970
▁cord	-14971
本文	-14972
次数	-14973
留下了	-14974
▁dict	-14975
尔夫	-14976
提请	-14977
达尔富尔	-14978
▁casual	-14979
▁Protection	-14980
坐着	-14981
▁aspir	-14982
▁credibility	-14983
害虫	-14984
看了	-14985
IDS	-14986
engers	-14987
芬兰	-14988
引起了	-14989
翅膀	-14990
▁Amb	-14991
▁frank	-14992
▁hills	-14993
▁battery	-14994
调动	-14995
采纳	-14996
▁scarce	-14997
救援	-14998
和分析	-14999
的价格	-15000
眼镜	-15001
穿上	-15002
密封	-15003
兄弟姐妹	-15004
这些国家	-15005
▁subt	-15006
▁unre	-15007
▁每个人都	-15008
▁faculty	-15009
的威胁	-15010
▁segment	-15011
▁vocabulary	-15012
免疫系统	-15013
▁Vict	-15014
是否会	-15015
▁adopting	-15016
▁cloth	-15017
▁texture	-15018
是无	-15019
找不到	-15020
的帮助	-15021
的组织	-15022
▁Ocean	-15023
▁villages	-15024
激进	-15025
▁vel	-15026
▁所以他们	-15027
▁grain	-15028
▁dangers	-15029
有罪	-15030
轻轻地	-15031
▁wra	-15032
重返	-15033
earing	-15034
的另一	-15035
这个国家	-15036
承包	-15037
▁每天	-15038
▁Non	-15039
organ	-15040
isible	-15041
▁tribes	-15042
▁Australian	-15043
两国	-15044
整天	-15045
比其他	-15046
▁Certain	-15047
▁momentum	-15048
▁territorial	-15049
带领	-15050
▁今年	-15051
提供一个	-15052
▁density	-15053
之地	-15054
对他的	-15055
ifice	-15056
▁loves	-15057
▁Establ	-15058
▁所有的	-15059
▁codes	-15060
这也	-15061
孟加拉	-15062
的保护	-15063
▁hier	-15064
ienn	-15065
棕色	-15066
▁upg	-15067
▁possession	-15068
照明	-15069
慢慢地	-15070
这是我	-15071
▁characterized	-15072
个别	-15073
▁Total	-15074
▁wings	-15075
▁oceans	-15076
▁Accordingly	-15077
UR	-15078
以保持	-15079
rine	-15080
▁Spec	-15081
▁talent	-15082
▁Process	-15083
债券	-15084
命名	-15085
▁看到	-15086
下次你	-15087
▁rhythm	-15088
▁pursuit	-15089
▁machinery	-15090
笑声	-15091
▁placing	-15092
楼梯	-15093
离子	-15094
▁鼓励	-15095
▁volcan	-15096
坚固	-15097
火箭	-15098
资源和	-15099
监护	-15100
▁chaos	-15101
诗人	-15102
中学生	-15103
把你的	-15104
▁abol	-15105
▁tied	-15106
米尔	-15107
下一步	-15108
你会发现	-15109
▁cardi	-15110
▁datas	-15111
▁striking	-15112
aped	-15113
能为	-15114
▁scenario	-15115
▁impression	-15116
平方	-15117
away	-15118
▁tech	-15119
▁argued	-15120
正在努力	-15121
带走	-15122
ype	-15123
很高	-15124
闭症	-15125
附加	-15126
餐厅	-15127
社会中	-15128
▁Wed	-15129
▁spectrum	-15130
蝴蝶	-15131
▁当她	-15132
ricts	-15133
▁dancing	-15134
球队	-15135
以便在	-15136
▁enemies	-15137
▁guiding	-15138
诸多	-15139
酒吧	-15140
▁Event	-15141
航天	-15142
urd	-15143
对所有	-15144
▁enl	-15145
▁resort	-15146
▁letting	-15147
生日	-15148
支持和	-15149
▁ber	-15150
65	-15151
侵略	-15152
▁minimal	-15153
摩擦	-15154
变得非常	-15155
假期	-15156
▁prince	-15157
写信	-15158
可视	-15159
处罚	-15160
reek	-15161
▁Men	-15162
▁cheese	-15163
▁Unlike	-15164
较高	-15165
违背	-15166
更有可能	-15167
isticated	-15168
恰当	-15169
uis	-15170
▁lemon	-15171
哭泣	-15172
职务	-15173
了一场	-15174
izer	-15175
联邦政府	-15176
充满活力的	-15177
可爱	-15178
最后一	-15179
管辖权	-15180
自己在	-15181
▁reass	-15182
▁Soviet	-15183
游行	-15184
技能和	-15185
▁reserve	-15186
▁fossil	-15187
▁reverse	-15188
你没有	-15189
▁weigh	-15190
▁antibiot	-15191
▁unlikely	-15192
▁precisely	-15193
天赋	-15194
正规	-15195
itime	-15196
▁infant	-15197
和华	-15198
捕食	-15199
pered	-15200
▁Select	-15201
面试	-15202
不必要的	-15203
▁inflammation	-15204
卡片	-15205
还包括	-15206
▁fertil	-15207
推理	-15208
▁再次	-15209
在家里	-15210
的女性	-15211
视着	-15212
最适合	-15213
可以使用	-15214
配备	-15215
在没有	-15216
如果你想	-15217
少数民族	-15218
▁inclusivity	-15219
使它们	-15220
▁england	-15221
者们	-15222
ylum	-15223
ordan	-15224
利益攸关方	-15225
▁Ultimately	-15226
证据表明	-15227
▁Ethiop	-15228
▁negotiation	-15229
对应	-15230
见面	-15231
遗憾的是	-15232
▁isolation	-15233
克罗	-15234
形势	-15235
泡沫	-15236
植物的	-15237
▁worker	-15238
让我们深入了解	-15239
对她	-15240
▁很久	-15241
▁supervision	-15242
300	-15243
深呼吸	-15244
pending	-15245
▁surviv	-15246
捕获	-15247
效益	-15248
沙特	-15249
利比亚	-15250
▁elig	-15251
▁responded	-15252
▁introducing	-15253
▁cheer	-15254
▁promising	-15255
手里	-15256
皇帝	-15257
微小的	-15258
▁volunteers	-15259
迁徙	-15260
▁Local	-15261
赞美	-15262
中找到	-15263
▁outs	-15264
▁enfor	-15265
的方向	-15266
gical	-15267
▁Army	-15268
吉亚	-15269
▁你有	-15270
通过研究	-15271
疫情	-15272
peror	-15273
▁ICT	-15274
餐馆	-15275
▁教育	-15276
▁peak	-15277
死于	-15278
▁Rad	-15279
archy	-15280
ascular	-15281
▁欢迎来到我们	-15282
▁tempor	-15283
的程度	-15284
▁nan	-15285
▁mail	-15286
▁contrad	-15287
ask	-15288
▁ol	-15289
我们想	-15290
▁guided	-15291
语法	-15292
马斯	-15293
那时起	-15294
老板	-15295
▁dimin	-15296
itzerland	-15297
必不可	-15298
定于	-15299
激活	-15300
维多	-15301
▁mobility	-15302
▁perpetrators	-15303
直至	-15304
▁特别是	-15305
▁philosop	-15306
并发症	-15307
backs	-15308
▁traged	-15309
制成	-15310
台湾	-15311
▁Ir	-15312
▁尼	-15313
中没有	-15314
它可能	-15315
▁stunning	-15316
圆形	-15317
排水	-15318
与联合国	-15319
▁Lead	-15320
我们今天	-15321
▁mamm	-15322
布局	-15323
海地	-15324
极大的	-15325
各个方面	-15326
▁sculpt	-15327
▁vertical	-15328
▁predictions	-15329
▁Nob	-15330
▁viewed	-15331
冲动	-15332
告知	-15333
坐下来	-15334
对这一	-15335
▁boss	-15336
▁bearing	-15337
▁distress	-15338
超出	-15339
▁incorporated	-15340
▁突然	-15341
公务员	-15342
▁acute	-15343
局限	-15344
身体的	-15345
直觉	-15346
苦难	-15347
▁characteristic	-15348
一大	-15349
▁distances	-15350
中国的	-15351
▁本报告	-15352
海外	-15353
▁pocket	-15354
▁enjoyable	-15355
itary	-15356
▁attor	-15357
▁continuously	-15358
标准的	-15359
只有一个	-15360
▁dimension	-15361
较小	-15362
通过将	-15363
委员会和	-15364
▁Small	-15365
不允许	-15366
▁Access	-15367
▁confron	-15368
▁Practice	-15369
▁fier	-15370
▁unto	-15371
▁Islam	-15372
▁displace	-15373
法院的	-15374
▁mirror	-15375
加密	-15376
▁tab	-15377
就像一个	-15378
▁carri	-15379
▁quote	-15380
▁inspection	-15381
▁exh	-15382
可供	-15383
怎么能	-15384
马逊	-15385
uty	-15386
▁Greece	-15387
▁touched	-15388
▁provider	-15389
▁innovations	-15390
可行的	-15391
▁Inde	-15392
▁testim	-15393
零售	-15394
▁我们知道	-15395
▁Regard	-15396
▁transmitted	-15397
▁tremendous	-15398
▁confidential	-15399
▁collaborative	-15400
减缓	-15401
加坡	-15402
197	-15403
ilitary	-15404
水平的	-15405
原子能机构	-15406
▁一天	-15407
ginia	-15408
▁Suddenly	-15409
了你	-15410
地球的	-15411
arious	-15412
ashes	-15413
▁horizont	-15414
当选	-15415
他们说	-15416
▁基于	-15417
葡萄牙	-15418
这个故事	-15419
▁enact	-15420
▁hardware	-15421
taining	-15422
▁gotten	-15423
刚果民主共和国	-15424
在国际	-15425
的公司	-15426
但也	-15427
分泌	-15428
错过	-15429
▁在这些	-15430
▁spite	-15431
▁offences	-15432
并被	-15433
▁Gen	-15434
就有	-15435
和使用	-15436
这与	-15437
▁orientation	-15438
▁Aust	-15439
的确	-15440
有帮助	-15441
维多利亚	-15442
▁fans	-15443
▁zones	-15444
▁Experts	-15445
因为她	-15446
十四	-15447
战役	-15448
books	-15449
▁outline	-15450
▁telephone	-15451
▁empowerment	-15452
的数字	-15453
fers	-15454
▁woods	-15455
▁chamber	-15456
罕见	-15457
▁Grand	-15458
▁hanging	-15459
新事物	-15460
内心的	-15461
▁2008,	-15462
▁swift	-15463
section	-15464
▁trigger	-15465
狭窄	-15466
制定的	-15467
在很大程度上	-15468
▁artwork	-15469
▁civilizations	-15470
杰米	-15471
fire	-15472
▁Medical	-15473
▁Studies	-15474
口味	-15475
微小	-15476
很好地	-15477
做得很好	-15478
▁icon	-15479
▁beside	-15480
cription	-15481
▁clarity	-15482
2.	-15483
onscious	-15484
把她	-15485
我真的	-15486
▁israel	-15487
▁stocks	-15488
▁jesus	-15489
▁split	-15490
▁winning	-15491
▁installed	-15492
▁publication	-15493
的艺术	-15494
▁Super	-15495
▁proteins	-15496
▁journalists	-15497
▁equations	-15498
▁measurements	-15499
▁render	-15500
其余	-15501
▁calculated	-15502
你也	-15503
话语	-15504
都知道	-15505
▁conj	-15506
▁throat	-15507
在纽约	-15508
的贡献	-15509
oop	-15510
较大的	-15511
gged	-15512
▁Chap	-15513
令人难以置信	-15514
▁stretch	-15515
▁complainant	-15516
只有在	-15517
可以帮助你	-15518
▁acquire	-15519
▁appreciating	-15520
将为	-15521
法令	-15522
宝石	-15523
相遇	-15524
规划和	-15525
▁checks	-15526
▁inventory	-15527
▁internally	-15528
一根	-15529
穷人	-15530
giene	-15531
▁IA	-15532
uity	-15533
什么样的	-15534
进行比较	-15535
▁buff	-15536
▁admitted	-15537
▁vigil	-15538
▁brilliant	-15539
订阅	-15540
制定了	-15541
的实际	-15542
▁blame	-15543
日常生活中	-15544
▁origins	-15545
终身	-15546
你们的	-15547
▁occasionally	-15548
2,	-15549
▁arising	-15550
的宝贵	-15551
▁monthly	-15552
滚动	-15553
硬件	-15554
通货	-15555
是对的	-15556
hemical	-15557
▁medicines	-15558
不及	-15559
未知	-15560
inea	-15561
ocation	-15562
▁recipes	-15563
▁又	-15564
一致的	-15565
工发组织	-15566
不同的方式	-15567
已有	-15568
...	-15569
是什么样子	-15570
▁bureau	-15571
▁sophisticated	-15572
▁complications	-15573
在学校	-15574
安全地	-15575
▁por	-15576
▁prevented	-15577
▁democr	-15578
枪支	-15579
jan	-15580
▁Indonesia	-15581
▁aggressive	-15582
剩下的	-15583
形成了	-15584
科学和	-15585
生物多样性	-15586
▁Sustainable	-15587
痕迹	-15588
▁debris	-15589
▁stepped	-15590
▁Lebanese	-15591
建议的	-15592
▁Everything	-15593
架构	-15594
▁awa	-15595
找到一个	-15596
▁pleasant	-15597
你就可以	-15598
▁安全理事会	-15599
assador	-15600
▁scientist	-15601
区域和	-15602
▁Real	-15603
▁recur	-15604
▁贝	-15605
▁varied	-15606
▁distinction	-15607
的条件	-15608
▁cig	-15609
▁logical	-15610
▁restaurant	-15611
偿还	-15612
像你	-15613
的妇女	-15614
cript	-15615
▁ties	-15616
是至关重要的	-15617
和小	-15618
自由和	-15619
▁drivers	-15620
▁offence	-15621
▁constructed	-15622
公里	-15623
opes	-15624
这一点上	-15625
▁caution	-15626
etheless	-15627
yr	-15628
等着	-15629
风味	-15630
地注意到	-15631
udget	-15632
esc	-15633
▁Tex	-15634
贵族	-15635
自动化	-15636
▁真的	-15637
37	-15638
欺凌	-15639
跳跃	-15640
▁elimination	-15641
每当	-15642
不寻常	-15643
等问题	-15644
凭借	-15645
会影响	-15646
▁ger	-15647
▁tob	-15648
介入	-15649
很长	-15650
烟雾	-15651
加利福	-15652
▁Mult	-15653
▁theat	-15654
▁magnificent	-15655
▁valued	-15656
优质	-15657
年和	-15658
非常好的	-15659
▁pandemic	-15660
▁prominent	-15661
▁attractive	-15662
得太	-15663
可爱的	-15664
▁confused	-15665
地看着	-15666
▁tutorial	-15667
望远	-15668
的无	-15669
sen	-15670
▁ratio	-15671
▁Really	-15672
▁Cultural	-15673
不存在	-15674
我不想	-15675
▁facilitating	-15676
人被	-15677
▁twent	-15678
▁venture	-15679
共产	-15680
双重	-15681
稍后	-15682
的事件	-15683
▁seeks	-15684
▁2009,	-15685
▁Korean	-15686
▁dioxide	-15687
▁publications	-15688
所做	-15689
▁brows	-15690
▁descend	-15691
对我们的	-15692
▁cure	-15693
▁assumed	-15694
出血	-15695
见了	-15696
▁WH	-15697
来西亚	-15698
▁Between	-15699
▁conform	-15700
▁我不会	-15701
▁partly	-15702
▁Something	-15703
发放	-15704
配合	-15705
人员和	-15706
你就会	-15707
应该在	-15708
住着	-15709
事实证明	-15710
pring	-15711
▁特别报告员	-15712
住所	-15713
收缩	-15714
▁执行	-15715
街头	-15716
▁respecting	-15717
table	-15718
▁libraries	-15719
ptic	-15720
▁Exc	-15721
▁Bible	-15722
▁passes	-15723
▁既然我们已经	-15724
▁assessed	-15725
可能包括	-15726
enger	-15727
▁orange	-15728
▁advisory	-15729
为其	-15730
▁coron	-15731
比以往任何时候都	-15732
▁entrance	-15733
▁integrate	-15734
三次	-15735
好事	-15736
弥补	-15737
▁femin	-15738
▁adapted	-15739
tegration	-15740
报复	-15741
简单地	-15742
▁acquisition	-15743
▁marginalized	-15744
相处	-15745
▁drought	-15746
▁laughed	-15747
▁Independ	-15748
之所以	-15749
行为和	-15750
的问题是	-15751
▁lock	-15752
意识形态	-15753
▁1993	-15754
▁complaint	-15755
WA	-15756
附属	-15757
到一个	-15758
现在的	-15759
▁sake	-15760
这些事情	-15761
荒谬	-15762
精神病	-15763
▁pad	-15764
把手	-15765
示例	-15766
▁hoc	-15767
▁cotton	-15768
剧院	-15769
这些是	-15770
▁bio	-15771
▁bills	-15772
▁Canadian	-15773
▁planting	-15774
mat	-15775
▁Colomb	-15776
浓度	-15777
▁Assess	-15778
▁unfold	-15779
ET	-15780
品尝	-15781
紧紧	-15782
随意	-15783
▁我还	-15784
▁restricted	-15785
橄榄	-15786
▁shifts	-15787
▁Georgia	-15788
▁profits	-15789
▁promoted	-15790
bour	-15791
▁seats	-15792
▁equivalent	-15793
▁questioning	-15794
望远镜	-15795
▁guns	-15796
▁triang	-15797
▁calendar	-15798
无论如何	-15799
▁wrap	-15800
▁embed	-15801
▁immigrants	-15802
你不会	-15803
▁fancy	-15804
企图	-15805
处方	-15806
和家庭	-15807
帮助您	-15808
▁Gender	-15809
pling	-15810
▁yard	-15811
了该	-15812
▁工作组	-15813
商人	-15814
结构和	-15815
requ	-15816
ivals	-15817
守护	-15818
过去了	-15819
▁秘书处	-15820
▁tapestry	-15821
ouis	-15822
▁heating	-15823
ashing	-15824
他就	-15825
感和	-15826
合作和	-15827
1998	-15828
▁Ann	-15829
▁presidential	-15830
▁当时	-15831
▁tons	-15832
成员的	-15833
▁assault	-15834
▁我对	-15835
监测和	-15836
我们也	-15837
▁regulate	-15838
▁progressive	-15839
▁demonstrates	-15840
里程	-15841
burg	-15842
mn	-15843
遗址	-15844
透露	-15845
vas	-15846
的人物	-15847
▁pets	-15848
婚礼	-15849
画面	-15850
耶和华	-15851
nings	-15852
▁Scientists	-15853
▁pale	-15854
次区域	-15855
▁refine	-15856
▁Territory	-15857
方法的	-15858
制止	-15859
振动	-15860
友好的	-15861
残忍	-15862
肝脏	-15863
▁约翰	-15864
▁Import	-15865
▁arranged	-15866
报酬	-15867
物资	-15868
计数	-15869
取得的进展	-15870
它与	-15871
抵制	-15872
▁玛丽	-15873
他认为	-15874
▁哇	-15875
▁Road	-15876
▁birthday	-15877
追随	-15878
erts	-15879
▁interrupt	-15880
▁Lim	-15881
▁加拿大	-15882
ropri	-15883
▁ghost	-15884
想出	-15885
不稳定	-15886
一些国家	-15887
▁brighter	-15888
共有	-15889
运作的	-15890
▁Den	-15891
恳求	-15892
assed	-15893
▁quantities	-15894
事先	-15895
而易	-15896
过程的	-15897
▁juice	-15898
雕塑	-15899
▁farms	-15900
破碎	-15901
发言者	-15902
▁Young	-15903
▁banking	-15904
选择了	-15905
▁celebrating	-15906
他们被	-15907
▁Ens	-15908
▁absorb	-15909
必然	-15910
▁processed	-15911
39	-15912
大西洋	-15913
神圣的	-15914
▁deserve	-15915
▁outdoor	-15916
▁interior	-15917
▁clay	-15918
▁La	-15919
▁histories	-15920
▁completing	-15921
死的	-15922
班级	-15923
olit	-15924
你的孩子	-15925
所有国家	-15926
▁Note	-15927
人际	-15928
下一次	-15929
矿物质	-15930
▁assert	-15931
▁prolong	-15932
▁surveillance	-15933
当作	-15934
isk	-15935
发生时	-15936
专业知识	-15937
有足够的	-15938
▁sanitation	-15939
see	-15940
烟草	-15941
有价值的	-15942
▁alia	-15943
▁Museum	-15944
▁paintings	-15945
致的	-15946
▁bears	-15947
▁likes	-15948
▁neutral	-15949
▁utilize	-15950
▁paragraphs	-15951
学金	-15952
目睹	-15953
筹集	-15954
控制的	-15955
▁slave	-15956
掉了	-15957
▁knee	-15958
▁Avoid	-15959
▁merch	-15960
湖泊	-15961
▁chemistry	-15962
市政	-15963
▁polar	-15964
▁refere	-15965
高速	-15966
音乐家	-15967
▁briefly	-15968
▁莫	-15969
▁开始	-15970
小小的	-15971
标志着	-15972
▁Write	-15973
stan	-15974
他们必须	-15975
▁accomplished	-15976
员和	-15977
玩笑	-15978
社区中	-15979
▁odd	-15980
▁tends	-15981
▁constitutes	-15982
▁正	-15983
▁Ec	-15984
▁Christians	-15985
▁法国	-15986
中世纪	-15987
▁governor	-15988
▁hesitate	-15989
▁monetary	-15990
▁Mother	-15991
以免	-15992
十个	-15993
确定了	-15994
▁illum	-15995
▁lucky	-15996
▁Looking	-15997
▁suspected	-15998
受过	-15999
▁环境	-16000
可以提供	-16001
交往	-16002
内战	-16003
▁ampl	-16004
所谓的	-16005
提名	-16006
显著的	-16007
▁这是我	-16008
▁sensitivity	-16009
惯例	-16010
aping	-16011
情节	-16012
指向	-16013
以实现	-16014
独一无	-16015
▁Cop	-16016
▁然后我	-16017
▁panels	-16018
▁earthquake	-16019
▁回到	-16020
▁bike	-16021
▁disappeared	-16022
喂养	-16023
▁继续	-16024
和政府	-16025
并不能	-16026
我们是	-16027
水资源	-16028
鲁吉亚	-16029
独一无二	-16030
▁observers	-16031
加哥	-16032
潜水	-16033
确保了	-16034
▁avo	-16035
▁burst	-16036
▁dread	-16037
▁washington	-16038
摄像	-16039
加强了	-16040
play	-16041
更有效地	-16042
审计委员会	-16043
▁tempt	-16044
▁Different	-16045
全身	-16046
布拉	-16047
很小	-16048
竞赛	-16049
不同于	-16050
▁Engine	-16051
▁default	-16052
▁experimental	-16053
局面	-16054
▁Mo	-16055
只是为了	-16056
没错	-16057
▁wages	-16058
两个人	-16059
神经网络	-16060
数值	-16061
看出	-16062
芝加哥	-16063
他们正在	-16064
▁Meth	-16065
和黑	-16066
消灭	-16067
铅笔	-16068
更健康	-16069
过程中的	-16070
▁districts	-16071
北美	-16072
大麻	-16073
确保在	-16074
onal	-16075
有不同的	-16076
的材料	-16077
▁pencil	-16078
▁contempl	-16079
野蛮	-16080
那以后	-16081
▁tag	-16082
▁adversity	-16083
电台	-16084
▁现代	-16085
同步	-16086
陪审	-16087
▁surre	-16088
钦佩	-16089
相似之处	-16090
定罪	-16091
裁谈会	-16092
阿根廷	-16093
▁rescue	-16094
的费用	-16095
叔叔	-16096
▁Challen	-16097
▁Reflect	-16098
▁numer	-16099
导弹	-16100
监视	-16101
gar	-16102
指挥官	-16103
▁Rome	-16104
▁butt	-16105
▁neur	-16106
最好的朋友	-16107
非常重要的	-16108
大厅	-16109
和情感	-16110
信徒	-16111
某个地方	-16112
▁circles	-16113
▁churches	-16114
太多的	-16115
指定的	-16116
orse	-16117
▁powder	-16118
▁retail	-16119
▁competing	-16120
参与了	-16121
明智的	-16122
▁bees	-16123
▁threw	-16124
▁abn	-16125
reach	-16126
车站	-16127
▁alien	-16128
和最	-16129
apore	-16130
▁白	-16131
讲话	-16132
证券	-16133
进攻	-16134
▁其次	-16135
▁恭喜	-16136
▁Due	-16137
▁diag	-16138
章中	-16139
itated	-16140
▁thrown	-16141
和美国	-16142
▁rum	-16143
▁inadequate	-16144
地板	-16145
bel	-16146
常驻联合国	-16147
▁Jamie	-16148
▁Effective	-16149
▁repeatedly	-16150
▁reconstruction	-16151
bted	-16152
武装部队	-16153
印度尼西亚	-16154
▁consume	-16155
尖叫	-16156
word	-16157
▁displayed	-16158
天文	-16159
的迷人	-16160
自闭症	-16161
atial	-16162
你可以看到	-16163
你知道的	-16164
拜访	-16165
来文	-16166
津贴	-16167
以获得	-16168
ivities	-16169
▁Prevention	-16170
▁亲爱的	-16171
▁Gold	-16172
▁但是他	-16173
我们不能	-16174
ancies	-16175
甚至在	-16176
▁aven	-16177
▁strip	-16178
卓越	-16179
与发展	-16180
而受到	-16181
▁cater	-16182
▁所以我认为	-16183
▁worthy	-16184
▁Tuesday	-16185
地亚	-16186
炸弹	-16187
▁分析	-16188
▁lux	-16189
有更多的	-16190
联合国的	-16191
ierra	-16192
然后在	-16193
▁pipe	-16194
▁asylum	-16195
德的	-16196
ipher	-16197
olved	-16198
的重要组成部分	-16199
利昂	-16200
更长	-16201
主题的	-16202
发出的	-16203
和工作	-16204
2015	-16205
▁在本	-16206
普及	-16207
索引	-16208
准确性	-16209
已经开始	-16210
这一目标	-16211
▁Hold	-16212
▁wage	-16213
▁Ukraine	-16214
▁retreat	-16215
▁tobacco	-16216
▁residence	-16217
引人注	-16218
▁Camb	-16219
▁reli	-16220
▁templ	-16221
网格	-16222
▁soap	-16223
报告说	-16224
探索这些	-16225
▁Wednesday	-16226
▁producers	-16227
才华	-16228
▁clues	-16229
污染物	-16230
▁lungs	-16231
相应的	-16232
▁Abs	-16233
▁impressive	-16234
▁plenary	-16235
地中	-16236
帮忙	-16237
fur	-16238
最后一次	-16239
▁forums	-16240
▁admit	-16241
探究	-16242
人们会	-16243
将成为	-16244
非凡的	-16245
▁UNEP	-16246
▁fitness	-16247
▁outlined	-16248
他们还	-16249
orge	-16250
▁bay	-16251
hesis	-16252
▁grief	-16253
▁winds	-16254
▁drinks	-16255
分成	-16256
固醇	-16257
有益的	-16258
▁sket	-16259
▁treasures	-16260
38	-16261
▁unfair	-16262
▁degradation	-16263
▁preliminary	-16264
招募	-16265
以及与	-16266
来说是	-16267
约旦	-16268
多样性的	-16269
omas	-16270
▁exceptional	-16271
配偶	-16272
▁py	-16273
▁截至	-16274
周围的人	-16275
▁talents	-16276
▁Examples	-16277
▁romantic	-16278
▁0	-16279
挑战性	-16280
流离失所者	-16281
先前	-16282
ems	-16283
困难的	-16284
▁london	-16285
借口	-16286
sey	-16287
讨论的	-16288
▁gut	-16289
▁1991	-16290
▁settlements	-16291
▁Safety	-16292
▁discomfort	-16293
特质	-16294
pes	-16295
▁counts	-16296
▁Thursday	-16297
修道	-16298
▁fee	-16299
▁treasure	-16300
仪器	-16301
▁这位	-16302
之前的	-16303
▁warrant	-16304
签名	-16305
奴隶制	-16306
感到惊讶	-16307
分娩	-16308
多项	-16309
任何一个	-16310
▁disturb	-16311
地利	-16312
合作的	-16313
ulsion	-16314
步行	-16315
重叠	-16316
夜间	-16317
和治疗	-16318
▁straw	-16319
▁intelligent	-16320
▁subregional	-16321
四周	-16322
流入	-16323
温室气体	-16324
感恩	-16325
的环境中	-16326
▁hungry	-16327
▁gentleman	-16328
▁hygiene	-16329
▁printed	-16330
▁respectful	-16331
显示出	-16332
▁Taiwan	-16333
▁openly	-16334
▁evaluating	-16335
挫折	-16336
icago	-16337
▁Love	-16338
▁Moroc	-16339
▁Eventually	-16340
情境	-16341
等待着	-16342
▁convenient	-16343
▁proliferation	-16344
一辆	-16345
优惠	-16346
度假	-16347
挑战和	-16348
毁灭性	-16349
埃塞俄比亚	-16350
史密	-16351
的程序	-16352
unct	-16353
▁ranging	-16354
▁Switzerland	-16355
▁collections	-16356
寄生	-16357
就开始	-16358
▁revers	-16359
regation	-16360
EL	-16361
珠宝	-16362
▁Choose	-16363
▁highlighting	-16364
创造性	-16365
空气中	-16366
▁Mechan	-16367
所有其他	-16368
景象	-16369
▁likelihood	-16370
尾巴	-16371
的需要	-16372
和平进程	-16373
▁Making	-16374
▁drafting	-16375
电线	-16376
▁exports	-16377
设计和	-16378
一生中	-16379
申诉人	-16380
讲故事	-16381
uate	-16382
▁Tal	-16383
▁intake	-16384
▁realizing	-16385
不相同	-16386
和犯罪	-16387
通过在	-16388
▁mineral	-16389
▁promptly	-16390
拿走	-16391
载有	-16392
和法律	-16393
研究了	-16394
关键作用	-16395
▁asleep	-16396
▁Olympic	-16397
回复	-16398
小学	-16399
▁escal	-16400
笑话	-16401
过多	-16402
▁Climate	-16403
岁时	-16404
解开	-16405
的调查	-16406
那些在	-16407
许多国家	-16408
▁permitted	-16409
▁underground	-16410
一支	-16411
雨水	-16412
▁celebrated	-16413
回答说	-16414
▁printing	-16415
34	-16416
举起	-16417
自然界	-16418
▁如果你想	-16419
ogical	-16420
▁evolve	-16421
▁prevents	-16422
▁analytical	-16423
▁swit	-16424
会使	-16425
听证	-16426
▁Fac	-16427
▁bias	-16428
▁punish	-16429
▁precision	-16430
aunt	-16431
▁sne	-16432
文化遗产	-16433
▁clarify	-16434
▁ceremony	-16435
推出	-16436
我发现	-16437
rane	-16438
指导方针	-16439
▁Analy	-16440
▁noble	-16441
▁publicly	-16442
▁Study	-16443
▁nursing	-16444
▁随着时间的推移	-16445
▁twentieth	-16446
林匹	-16447
为一个	-16448
和行为	-16449
oric	-16450
▁Sund	-16451
体积	-16452
生计	-16453
了一下	-16454
发展援助	-16455
▁如果他们	-16456
▁abandoned	-16457
陷阱	-16458
可靠的	-16459
大卫	-16460
潮湿	-16461
邻国	-16462
如此之	-16463
▁copies	-16464
▁embarr	-16465
▁dominant	-16466
预言	-16467
交互	-16468
拿出	-16469
为你的	-16470
道主义	-16471
一些关于	-16472
▁baking	-16473
墙上	-16474
ailand	-16475
版权	-16476
时期的	-16477
isite	-16478
▁shout	-16479
▁engineer	-16480
的人群	-16481
▁responding	-16482
受众	-16483
问题时	-16484
▁restoration	-16485
▁fatig	-16486
▁galax	-16487
▁hiding	-16488
▁corporations	-16489
urred	-16490
▁happier	-16491
坚决	-16492
青春	-16493
▁Norway	-16494
▁livelihood	-16495
破裂	-16496
碰撞	-16497
▁这对	-16498
▁Cost	-16499
▁dupl	-16500
vy	-16501
在与	-16502
已知	-16503
▁glow	-16504
▁2010,	-16505
▁Staff	-16506
▁servants	-16507
不止	-16508
如果他	-16509
意义的	-16510
花时间	-16511
▁enabled	-16512
▁另一	-16513
工程处	-16514
的成功	-16515
的管理	-16516
mble	-16517
osa	-16518
apped	-16519
ooked	-16520
▁seas	-16521
可归	-16522
童年	-16523
pled	-16524
uction	-16525
▁Class	-16526
不满	-16527
故事中	-16528
▁Field	-16529
▁Ms	-16530
服务和	-16531
▁caut	-16532
▁incentives	-16533
刻板	-16534
十七	-16535
子宫	-16536
毒素	-16537
的状态	-16538
▁bite	-16539
▁relates	-16540
固体	-16541
的严重	-16542
▁altogether	-16543
妥善	-16544
▁affordable	-16545
法定	-16546
▁我们正在	-16547
▁knees	-16548
斯顿	-16549
明年	-16550
东道	-16551
win	-16552
▁shield	-16553
弹性	-16554
的健康	-16555
▁guest	-16556
的爱	-16557
繁忙	-16558
▁Hol	-16559
照料	-16560
ione	-16561
昂贵	-16562
这些东西	-16563
▁Quest	-16564
警报	-16565
▁你曾经	-16566
forest	-16567
▁developers	-16568
▁unh	-16569
▁cease	-16570
就要	-16571
延续	-16572
透过	-16573
是时候	-16574
▁Philipp	-16575
▁quantum	-16576
▁authorized	-16577
产出	-16578
▁法律	-16579
[...]
